// Scale factors per layer (IEEE 754 FP32, little-endian)
// Di Verilog: gunakan fixed-point atau lookup table

// conv1_weight - 6 scale(s)
50
32
82
3B
54
89
68
3B
AD
DB
1F
3B
5E
EB
86
3B
C8
98
84
3B
EC
14
94
3B

// conv1_bias - 1 scale(s)
8C
C3
20
30

// conv2_weight - 16 scale(s)
82
C3
32
3B
48
E7
97
3B
C1
DC
6B
3A
A6
36
9A
3B
79
00
D4
3B
0B
6B
D9
3B
6F
3B
2B
3B
3E
CA
4A
3B
73
01
09
3B
76
D1
8E
3B
07
40
96
3B
89
9B
6C
3B
47
A4
84
3B
59
D9
66
3B
DB
9A
D3
3B
7B
64
D0
3B

// conv2_bias - 1 scale(s)
E2
21
81
2F

// fc1_weight - 120 scale(s)
60
FB
12
3B
A1
20
8A
3B
9D
49
8B
3B
C4
FA
83
3B
50
3C
7C
3B
3C
D2
49
3A
FB
2B
98
3B
FC
A3
3B
3B
54
C1
86
3B
71
94
43
3B
47
00
56
3B
28
8F
42
3B
6B
4D
54
3A
01
99
6E
3B
90
C9
47
3B
23
B0
3B
3B
27
C9
1F
3A
66
CC
68
3B
03
FA
20
3A
8A
4C
A1
3B
72
09
4E
3B
D8
F0
4C
3A
F1
FF
A7
3B
84
3A
A0
3B
FB
93
38
3B
DF
AE
30
3A
5C
EE
1B
3B
08
F4
68
3B
EA
E1
4C
3A
B3
A3
8C
3B
3A
E6
68
3B
E0
33
57
3A
1F
86
68
3B
B7
D1
65
3B
F7
17
37
3B
71
B5
36
3B
11
65
69
3B
7F
E7
8B
3B
C1
B9
57
3B
91
A8
42
3A
CC
B0
67
3A
CA
B8
89
3B
C8
BD
94
3B
46
16
8A
3B
27
81
38
3A
22
10
29
3A
48
9B
27
3A
FF
4D
53
3B
1B
20
2B
3B
6A
5A
A2
3B
35
35
6F
3B
97
81
60
3B
3F
52
D9
3A
C3
C6
7C
3B
36
BB
77
3B
F0
27
2B
3B
52
C0
77
3B
87
36
6C
3B
0D
29
66
3A
8C
A4
19
3A
31
BB
5D
3B
B9
2A
4F
3B
6D
A6
49
3A
45
47
54
3B
DE
2B
13
3B
2C
DC
50
3A
8C
46
74
3B
E2
D8
26
3B
F1
89
6C
3B
DE
38
49
3B
F5
16
37
3B
56
E8
A8
3B
79
32
54
3A
F7
E4
83
3B
ED
D8
5D
3B
69
9D
8E
3B
A7
C2
56
3B
CD
0C
24
3B
E1
A6
0A
3B
1B
0D
5A
3B
23
B1
29
3A
98
50
3E
3A
D6
64
47
3A
66
3D
74
3A
AC
0D
4A
3B
19
F5
C3
3B
08
DE
89
3A
60
BA
67
3B
BA
4F
20
3B
56
2D
56
3B
F4
D1
32
3B
BB
5A
96
3B
14
D3
6B
3B
73
AE
6E
3B
24
31
8F
3B
49
DA
7E
3B
82
6C
46
3B
47
E9
53
3B
5D
C0
66
3B
DD
59
63
3B
7F
01
3F
3B
C4
CF
8D
3B
24
16
84
3A
61
B2
52
3A
51
E7
6B
3B
AC
B2
66
3B
2F
F9
75
3B
32
AE
67
3B
FA
19
84
3B
1D
72
4E
3A
D2
E4
87
3B
B3
E1
85
3A
BA
A7
45
3A
48
2A
A7
3B
96
B6
44
3A
2D
8B
2E
3B
E0
A4
5C
3A
F6
F7
67
3B
6F
AF
39
3B
87
01
28
3B

// fc1_bias - 1 scale(s)
73
98
83
2F

// fc2_weight - 84 scale(s)
1B
CE
2A
3B
87
50
30
3B
08
C4
4E
3B
EA
98
4E
3B
1C
86
17
3B
D4
59
5D
3B
A1
A9
20
3B
91
A9
98
3A
6A
1B
0A
3B
52
37
43
3B
A4
06
8C
3A
F8
3D
38
3B
E8
A0
80
3A
66
55
48
3B
43
5D
38
3B
05
9D
9D
3A
37
2D
74
3A
E3
9F
82
3B
8A
CC
70
3B
34
E9
61
3B
31
AD
F4
3A
51
90
58
3B
15
2D
6F
3A
83
B1
45
3B
7E
D0
38
3B
E9
27
6B
3B
82
6D
45
3B
33
71
FA
3A
49
59
4D
3B
51
BE
84
3B
FB
C1
8C
3A
4A
EE
5B
3B
5B
6A
25
3B
34
F9
6D
3A
DD
36
41
3B
0D
53
89
3A
73
AA
24
3B
1F
DB
60
3B
B5
A4
35
3B
A1
9E
8F
3A
19
5F
4E
3B
CA
06
14
3B
C2
73
26
3B
B2
11
45
3B
57
0A
A8
3A
8E
F6
24
3B
A0
BF
72
3B
F9
6B
3F
3B
EB
F6
41
3B
1B
C0
AE
3B
A0
93
46
3B
8B
54
34
3B
44
30
3D
3B
B9
8E
25
3B
A3
A5
AB
3B
37
99
43
3B
93
B7
22
3B
2B
BF
5B
3B
5F
EF
75
3B
14
AB
9C
3A
81
32
4F
3B
FE
1B
2A
3B
4B
6F
5B
3B
5A
0B
0F
3B
BC
BB
41
3B
5C
80
52
3B
1E
0A
1F
3B
F9
CA
29
3B
0D
E3
4D
3B
99
EC
67
3B
F5
A4
7B
3A
73
7E
8A
3B
AA
6F
5A
3B
91
40
76
3A
BA
26
9B
3A
37
A2
8F
3A
57
10
10
3B
BF
B1
77
3B
A3
A3
18
3B
28
2D
01
3B
46
AF
8C
3A
D6
84
10
3B
95
71
7C
3A
FD
47
20
3B

// fc2_bias - 1 scale(s)
70
CF
B1
2F

// fc3_weight - 10 scale(s)
F4
E2
81
3B
25
60
9C
3B
B3
6D
9A
3B
E3
61
85
3B
80
57
77
3B
21
5B
95
3B
05
41
6F
3B
0D
AC
E1
3B
C6
D4
9E
3B
AC
F0
7A
3B

// fc3_bias - 1 scale(s)
39
31
69
2F

