// =============================================
// LeNet-5 INT8 Weights - Fashion-MNIST
// Format: 1 byte per line, signed->unsigned hex
// Untuk Verilog: $readmemh("lenet5_int8.hex", rom)
// =============================================

// conv1_weight — shape=(6, 1, 5, 5) — addr=[0x0000 .. 0x0095] (150 elements)
92
C5
CF
D3
17
BE
A9
EA
12
37
7D
FD
5A
46
FC
43
24
12
C1
B3
D1
DA
8C
81
D9
15
50
51
0B
81
DE
19
F7
0A
BE
E1
1A
F4
EF
F3
18
55
53
FE
E0
23
5C
20
5A
50
B2
10
2E
7F
49
83
17
FA
20
26
42
EA
0A
05
C3
01
6F
D0
1E
36
09
52
42
4E
FE
E2
33
52
B1
E6
F2
3E
2B
A9
FC
BC
52
59
81
11
C5
6B
77
83
D3
02
7E
35
A2
A1
52
00
D1
28
05
00
F7
F9
CF
3E
1E
D3
BA
CB
0A
09
EC
82
81
D6
19
D1
97
89
EC
B0
81
95
01
F4
E8
9D
EE
3F
F7
FB
F5
3A
29
16
02
3A
4D
25
2C
01
1D
30
06
11

// conv1_bias — shape=(6,) — addr=[0x0096 .. 0x009B] (6 elements)
C0
F7
9F
E0
E0
43
E0
E3
E0
73
4D
0B
94
2F
D7
FD
00
00
00
C0
60
FF
A9
19

// conv2_weight — shape=(16, 6, 5, 5) — addr=[0x00AE .. 0x0A0D] (2400 elements)
DB
21
3A
25
4F
F5
ED
0B
30
64
E3
E3
D8
D6
35
F3
0A
D4
D1
0F
43
2A
CA
D1
0F
01
FE
C3
F2
C8
0F
1E
DD
FB
E9
E3
3B
1A
F7
11
EB
FB
2D
32
FB
83
A9
19
4F
0F
F9
05
E7
E3
CD
22
06
25
F4
B6
F3
3C
FE
16
D2
14
06
3D
16
12
B9
EF
26
58
F6
6E
3A
00
B1
D3
1C
32
39
E0
E5
0B
17
13
9F
0D
40
10
07
B3
0C
7F
D4
AE
AC
1C
E2
02
32
3A
7A
F9
05
DA
2A
55
CA
C9
DA
E3
0E
D5
DB
9D
AE
D4
19
16
11
D6
EC
E6
FD
5D
16
F0
01
2E
1B
06
0D
1F
40
04
28
02
F2
2B
17
20
31
87
DF
F4
1D
D3
10
E6
CC
09
0C
05
E6
D6
27
0D
21
E8
EA
F6
03
3C
17
E1
FB
08
29
FC
E7
06
0E
FD
2D
27
01
CC
0B
F7
F9
03
FC
F3
CF
20
10
01
F7
D3
05
30
EA
F4
0A
2C
2F
FE
18
13
18
C7
D3
E5
E8
FE
F2
E8
FE
E7
17
03
F4
EB
FF
2E
17
F3
03
1F
3B
23
DE
06
7D
3D
B8
D2
FD
19
EB
EE
E8
FC
0A
EC
F3
E7
0C
20
FF
F4
12
0D
27
0F
E1
06
00
D6
F4
0E
FC
12
F6
EC
03
FC
2C
D5
D7
DE
F3
3B
F8
D7
ED
04
32
0B
02
05
2D
1F
CC
81
F1
52
D5
E1
EA
CB
EE
FF
12
FA
D9
1B
FC
34
E8
E2
1E
0B
50
05
06
0B
9A
A9
05
F7
E9
F9
E7
DF
22
EA
FE
2E
C0
0C
C5
DA
17
AB
A8
20
05
C7
F1
00
03
16
45
A3
ED
E1
94
F0
E8
1A
C5
C1
A6
99
3B
14
C9
DE
0D
BB
EC
07
31
F3
AF
CF
BA
A7
FD
A7
20
F1
F4
09
AA
21
22
B0
BF
0B
A8
D6
05
C2
4A
B6
8F
FA
E4
AB
B8
1C
23
A3
19
85
93
D8
2B
0A
98
DA
EA
12
B3
EB
0E
83
C5
DF
D7
89
AB
01
F1
B1
BD
DD
D0
EF
2B
B3
3C
0E
D6
E5
C6
BD
C0
F0
AE
DA
D1
09
FD
24
CE
12
A6
81
A9
25
C5
04
E9
CE
A3
D1
20
99
B9
A4
DF
AA
CA
2D
A7
AE
E8
F6
B1
B2
CF
C8
A6
B6
02
1C
05
08
FA
E4
1B
24
FC
F9
E6
19
0D
10
09
C7
FB
22
13
EF
B8
ED
17
1A
FC
EB
FE
F0
08
37
FD
F2
FA
FD
25
1E
0D
F8
ED
F3
16
04
FA
F5
F9
0C
FB
E1
E9
BF
E8
F8
06
21
35
05
EE
06
27
2B
17
08
F7
1B
09
07
0F
F2
F0
00
FC
F6
D5
D1
F3
D0
CC
FE
0F
1B
EF
C5
CF
04
15
CA
F2
EB
25
26
C7
D4
D6
F4
12
A3
BF
EE
C7
11
07
33
32
17
09
EE
1F
32
0D
E6
D4
0B
2E
0B
F5
C3
FE
21
1B
F3
DA
05
19
3F
15
81
97
C7
DD
F3
06
F9
16
11
ED
35
0D
06
0F
E8
FD
ED
F8
F8
0A
E4
E8
02
09
FE
F8
F8
04
0C
0E
FA
02
03
00
0E
0F
03
03
07
FE
0E
F5
FB
FE
05
0C
F7
F4
F2
F2
08
EE
DD
FB
FA
07
0E
F9
17
0C
13
05
09
0D
05
F2
08
00
03
F4
E3
EF
10
01
FD
05
E1
FC
F2
F1
1B
04
FF
F5
F4
02
F9
09
FE
EF
E9
EE
FA
ED
F0
EB
06
06
F4
FE
26
03
F6
19
20
F0
41
0D
13
0C
C7
2F
00
07
F2
A3
F1
EB
DE
E2
81
BB
E7
DE
D2
F0
12
09
0F
23
0D
02
0B
11
0C
06
F0
01
09
F0
1E
F3
F6
06
FA
22
FE
EB
F8
F5
B9
08
31
19
FC
E8
09
0D
ED
0D
0A
07
F0
F5
16
EF
12
E7
F4
03
07
16
EE
E5
00
18
FA
F2
FC
19
1D
E8
E7
08
06
23
FC
EE
17
0F
10
0C
FF
F3
02
16
23
0D
07
FC
DA
1C
1E
F6
EC
06
04
F7
0B
FC
0D
18
04
0B
FC
1A
07
02
0F
F6
17
FA
EC
F1
F2
09
23
05
EB
E9
0C
11
FF
04
E1
0B
0A
EB
ED
EE
0F
14
0D
FE
F8
0D
FE
EF
E9
F4
B9
2C
FE
81
DF
E1
FF
F1
E4
07
E5
FE
F5
00
FC
E3
27
13
F7
02
D3
2B
02
E6
0A
00
DC
FC
01
F7
03
ED
F4
0B
03
06
F3
FE
F3
EE
08
F7
EB
E4
E7
1C
10
03
10
02
5D
0B
B6
F1
04
11
ED
D0
FA
F8
FA
EF
F8
2E
20
0F
03
EB
14
19
06
18
E7
F8
EB
20
69
7B
5D
02
08
06
36
02
04
06
02
D6
18
07
ED
E7
EF
0E
FC
A3
A3
DD
D4
D7
0B
C7
BD
E4
F8
ED
03
D7
C1
E7
FA
F3
09
EB
DE
36
0E
05
0A
D9
59
5B
35
29
D5
EE
C1
E8
21
03
12
E9
F2
DE
ED
0D
12
D4
00
F5
31
1B
F2
EF
15
49
2D
07
02
E1
19
00
F9
3B
5F
E7
EC
12
F7
0E
E2
F9
D2
DA
02
E3
F5
E6
E3
D1
EE
D8
B7
FF
DB
50
65
25
23
08
FE
07
0F
14
13
0B
C4
ED
01
07
FA
CF
EE
CD
01
9B
9A
C2
DF
0D
B9
59
7F
2A
F5
0C
57
03
C9
1F
3C
35
CD
09
19
1B
28
E9
F1
D9
4E
5E
36
0D
CB
FA
33
2A
2F
44
0C
02
E1
D4
26
13
FF
C9
F5
05
00
F9
E6
F4
FA
FB
0D
D4
E2
FE
BE
D8
D3
EC
B2
F1
F6
2B
0C
F5
EC
CE
10
10
EA
EA
D5
E7
0F
F1
EA
C9
DD
06
04
D0
CD
D3
D0
C0
03
08
3B
0F
D5
EC
E2
26
24
EF
FA
02
27
16
F3
E4
C1
18
26
0B
23
E2
01
07
02
2F
33
47
59
1F
60
33
22
50
11
48
58
14
0C
FB
5C
7F
21
00
19
0F
1D
0D
15
5A
0D
25
CB
D0
68
08
17
B1
B6
06
0E
0F
DD
C4
16
02
F5
F8
DF
FE
BE
45
69
4D
DE
98
EC
24
CC
8F
B7
30
33
F9
D0
DD
2A
24
BA
C8
DE
0B
0E
E1
C6
16
F7
C2
02
4A
36
C0
D7
04
68
32
06
B2
14
2C
18
F7
AE
EA
FE
F0
09
FD
17
15
1E
67
5F
C0
91
F2
14
3B
FD
BA
1C
19
16
E9
EA
3C
4C
40
1D
E4
24
4C
D9
CC
06
38
1C
11
9D
A4
E4
53
1E
E8
A7
1F
3B
36
09
AA
60
49
F7
E1
E0
3C
3D
D5
F4
DF
68
25
7F
01
9B
66
D6
69
25
EF
EB
9F
6A
F6
E2
D7
E3
F7
F1
B2
AA
BF
B5
A0
91
F5
DB
B9
30
49
2E
C2
9F
31
52
0E
A9
B5
23
11
F0
F2
C0
1B
19
E4
49
15
47
23
F8
E5
F1
EB
F2
0F
45
0C
D8
E9
44
5A
C4
9A
CA
57
F0
99
C3
EE
19
B6
AC
D1
44
07
E9
F6
DD
EB
1C
FA
FC
EF
FD
FC
0B
11
F2
0E
15
18
0C
01
06
0E
03
10
EF
F7
18
08
1F
42
42
14
EF
01
FF
24
03
FB
DE
EB
07
F1
F1
FA
F3
DC
04
DF
D0
0A
E0
2D
2B
35
2E
0D
02
00
10
19
FB
13
F1
F4
0E
F3
FA
D3
F7
04
F3
F3
C0
E8
10
05
D1
01
00
05
37
A6
18
29
FA
FA
D7
06
21
FB
03
03
F4
F5
24
13
2B
30
E0
2D
08
14
F7
FF
F5
DA
09
F0
13
F4
F0
17
1A
10
F5
0A
1B
27
F6
EA
0A
F7
06
07
F5
0C
2D
1C
0A
DB
E2
12
0C
F9
E2
D5
E8
DF
B9
A3
81
E2
C9
D1
F0
F0
F2
FD
04
1E
FE
17
F2
CF
BD
C6
1B
16
FF
FF
D0
04
1A
E5
F8
E6
FB
0E
10
10
18
CA
F5
42
78
76
00
F6
16
2B
1C
04
DE
F0
0D
17
F8
E7
FB
F9
2A
F2
FE
0B
EB
17
03
EF
E5
A9
C8
FE
05
0F
28
05
F4
16
15
1C
12
07
0D
10
22
05
02
06
FC
15
25
23
0F
E6
B1
B4
DE
0C
08
FD
14
F6
F4
FC
D8
0C
08
11
F8
E1
FD
0F
1E
F9
FF
EE
4E
6A
2C
19
A6
2F
1B
E1
D3
C4
15
0F
EE
DC
EA
10
EA
D8
E2
EF
13
DE
F9
1B
16
CA
C9
40
55
7F
BE
C0
E4
0D
ED
0A
36
28
2E
E9
0A
0D
00
11
F0
F1
F0
17
11
22
35
0C
E0
D9
FA
FB
02
18
F5
DA
09
2B
14
FF
DD
F1
05
F7
E0
F6
01
18
E8
CD
F1
5A
38
09
E8
24
16
F0
D3
23
48
18
EA
DC
20
1E
01
C0
D1
01
FE
0B
C1
B9
F7
FB
E0
DC
EF
FE
21
25
12
F1
30
2D
10
F7
0C
04
FD
F0
BC
BF
1A
11
01
B9
DF
05
FA
D8
D4
FC
0B
07
ED
1E
06
DF
49
20
1B
B1
AB
04
1F
FA
81
B9
DF
0E
23
F7
E0
F5
DE
5D
40
10
06
07
33
0D
F4
CC
E7
34
33
02
DF
05
2F
ED
CA
D9
3A
16
BF
A3
FC
62
1C
FE
D2
12
FA
E0
DB
C2
B5
20
02
08
19
14
FD
0A
4A
2F
DA
EB
09
56
3F
04
C8
EA
FC
10
05
51
16
E4
D0
FE
FE
EA
05
ED
CE
EA
FD
0A
14
FC
0D
F8
1A
29
20
FE
1C
42
2C
24
CF
C5
1E
52
1F
14
FF
21
1F
F6
E4
FD
02
14
F6
01
F8
F8
03
07
09
E3
BD
DC
D9
E8
27
58
3E
DC
03
13
17
06
09
E2
F9
05
0A
F3
02
FC
10
FA
FF
01
F2
D2
D7
DA
FA
01
3E
3B
FF
E6
F3
14
25
01
C8
C6
16
19
E8
E1
D9
E3
10
0E
10
F1
F1
15
CE
03
E4
D4
DD
E9
FD
09
02
F1
E2
E2
DE
13
0B
E8
E5
FA
FF
12
23
FB
11
31
27
3B
7F
38
06
A7
03
FA
F3
09
C6
03
09
1C
E8
FC
C7
01
E3
E4
FA
E4
11
BD
F2
DE
EC
14
3E
3E
F8
CB
03
F2
FF
E5
F1
F0
E6
05
0B
00
FC
01
1E
09
16
DC
0B
11
18
09
F6
C7
A1
EE
0B
1E
FF
E7
E2
EA
2D
05
EF
E6
D4
0A
07
04
D0
CA
0A
FA
E2
CA
A2
E6
BC
DC
2E
17
12
FD
D4
F0
0A
2E
16
DE
01
01
1F
08
E5
C9
DA
3F
14
D1
CB
EE
9F
BA
A5
18
0F
BA
DB
E9
01
0D
F7
DC
F6
1E
1F
F3
02
F4
2F
31
F3
FD
13
21
2E
15
37
14
CF
DC
CF
E5
E6
D6
E6
C7
E7
11
FC
F9
FA
16
1B
27
1C
E0
02
16
0E
0C
4A
66
7F
55
19
19
EA
03
35
5D
18
04
F4
04
F6
16
DC
E3
E7
EF
21
C9
E6
F2
3B
0C
03
FF
05
FE
00
06
09
FB
EF
F7
E6
F4
F6
CC
F4
E3
E4
FD
EA
F9
08
29
39
2F
04
F2
ED
EA
F5
F8
03
F7
F8
03
EF
FE
FC
F7
04
03
FE
04
06
0B
FF
00
12
12
02
12
F9
04
FC
00
06
09
F9
FF
F2
FB
08
F6
0B
08
F6
08
14
16
05
F9
F7
0B
11
F9
0B
11
EA
A1
19
0C
05
EB
9D
0D
FA
EB
ED
81
08
F4
DD
DF
84
0F
05
D4
B3
90
00
0B
EE
FA
02
DD
FD
F0
FC
ED
CB
E6
D2
D3
E4
EA
F2
C7
D7
F2
0B
E8
D7
1C
0B
10
05
07
FF
FF
FB
06
0D
06
F7
02
07
06
0C
0A
14
FB
FF
1C
20
20
08
1A
2A
1C
13
FF
EF
EC
08
FE
20
F7
F1
0A
14
0C
F1
F7
FF
0A
0A
07
03
10
1D
00
FA
0B
1A
17
01
1C
14
0F
EC
EC
03
09
F0
EB
FF
FF
F6
EC
E3
09
FC
01
FF
FB
03
02
04
09
0C
1B
08
09
00
EA
0E
F3
ED
F5
DE
0F
08
FC
FA
D5
FE
FC
F4
F5
EE
01
E9
06
19
ED
04
FF
17
20
14
18
01
FF
0D
13
25
08
CF
E1
07
10
E4
AB
D1
F3
F0
9D
81
B8
ED
10
E0
F2
04
0C
FD
E3
F9
0E
1A
E4
E9
EF
03
13
E2
F1
FD
F7
FF
FA
FA
F5
03
05
15
17
FC
C0
D8
32
29
03
0E
2C
24
F7
E4
F5
06
25
EC
F7
13
1E
12
F0
28
14
02

// conv2_bias — shape=(16,) — addr=[0x0A0E .. 0x0A1D] (16 elements)
E0
18
A2
EE
40
77
6B
2B
D0
44
DA
F5
40
2F
9D
DD
40
39
36
CB
30
10
3E
0C
B8
48
22
FB
20
C2
62
ED
90
7B
D8
F1
80
02
7C
11
00
30
68
DA
30
E4
CB
0B
D0
E6
48
06
C0
99
50
08
00
EB
1A
26
00
00
00
40

// fc1_weight — shape=(120, 256) — addr=[0x0A4E .. 0x824D] (30720 elements)
0F
1B
05
BB
41
14
45
E0
42
14
27
0B
E0
C2
E8
1E
BE
23
D7
13
E8
DB
E0
59
F6
F2
B1
01
0C
14
C7
F1
EE
E8
13
F3
13
09
FD
19
15
E7
FD
13
F4
0B
02
18
48
00
3B
2C
39
03
06
16
0E
EC
32
01
16
AB
BB
D8
EE
49
2A
3E
44
3A
12
53
17
FA
F9
D9
E1
B9
DE
C2
E4
F5
C6
08
E2
F7
A5
E6
CB
50
17
EA
D0
51
10
FF
D9
18
EC
07
12
3C
03
FE
10
56
F8
0E
4A
51
1E
F0
07
1E
49
A4
12
25
2A
BE
3D
0D
E9
D7
21
22
DE
21
BF
68
2C
AE
89
34
17
D1
B0
EE
B6
ED
FD
0F
DE
E9
06
19
04
50
A3
D7
C2
2A
CB
D2
EF
0A
E2
04
16
12
12
24
C1
DA
0F
72
99
BA
F6
02
99
EA
FF
20
CF
09
FF
1F
F0
97
13
0A
E3
BE
23
07
FB
0C
0C
E0
FF
C6
D1
B3
21
AD
9E
F7
A9
B1
A1
F7
C4
C8
E0
F4
06
19
E0
E1
0D
FE
A6
D9
AB
B4
F6
33
CE
DA
03
33
E0
EA
4F
13
07
7B
21
3A
23
77
F2
17
09
53
27
12
38
7F
1C
0C
25
DA
D2
74
48
B4
B2
22
FE
0B
06
36
EF
E5
F8
20
F0
D7
09
07
EF
0B
06
00
03
0C
F6
FF
F9
D8
0A
F0
8E
09
15
FB
DD
E1
1E
F7
00
E6
17
25
33
FA
FB
FD
0D
0E
01
0A
00
F5
F2
06
05
06
05
F7
F4
FE
E3
33
34
0A
DE
0B
02
12
C1
08
06
10
C7
F6
0C
FB
09
12
2A
E0
02
E4
07
FF
1A
0C
13
1B
FC
EB
09
12
5F
0C
81
17
02
02
CA
DF
15
D9
E0
05
07
E1
F9
2E
F4
DF
09
D4
F6
F1
0B
10
DF
D0
FE
F3
D4
0A
1D
E6
0E
A1
DD
FB
1C
E5
FC
FD
05
E2
41
0C
09
17
6E
05
22
03
92
0B
1A
EF
F7
F7
14
DB
D0
1C
FF
ED
02
17
11
CA
18
35
09
F3
E9
03
26
08
0F
0F
01
DF
01
F7
D9
FF
E2
E9
04
EF
10
E7
2C
07
16
F3
1F
01
BE
EB
F3
E6
26
13
FB
E6
11
18
F7
14
0F
0C
0B
04
07
D2
26
B8
89
1D
16
D4
D5
11
1D
15
F3
11
F7
EB
EB
0B
DB
C8
1D
FC
F1
E7
06
22
11
FB
17
35
DB
D8
05
18
03
21
08
36
04
08
F4
29
F4
09
F0
EB
F5
FC
DD
ED
35
EC
FA
03
04
1D
F6
01
F5
D0
D0
17
10
F4
0F
04
E0
B7
EA
0C
F8
CD
15
24
F6
E6
FB
1B
13
EB
FC
42
03
31
FC
F7
EE
F7
F8
0A
16
E3
07
02
23
CA
0B
03
00
F4
00
03
03
04
FA
0B
06
0B
0B
FA
00
FE
FD
FF
1D
04
CC
DD
2E
0C
F9
01
1B
0C
E7
12
F2
1F
E8
FC
12
0E
ED
1A
39
10
F0
0B
2D
0A
09
F8
1F
E3
01
04
D7
18
1B
23
FF
1F
F1
22
F5
FD
0C
FE
03
D7
12
02
C9
DC
08
FA
FC
E1
FE
04
22
F4
04
FB
7C
10
0C
0F
03
CE
FD
FB
F8
CC
05
D9
07
00
F9
EB
4B
09
2D
3B
30
F9
F6
0D
FB
FC
F0
06
02
FE
D2
FA
15
EE
EA
0A
28
16
F7
DA
1D
1C
E3
E1
0E
EB
D7
DC
BC
CE
E6
DB
C3
F7
B5
EB
DF
F5
07
2B
FD
F4
11
FB
1A
21
4C
BD
18
02
17
04
10
14
04
19
0C
F1
00
28
FE
E4
18
7F
05
21
2F
29
06
17
DA
F4
DB
F9
F0
ED
E8
09
F8
D0
E6
09
FF
F4
10
08
07
20
F9
DF
FB
0B
F8
17
F0
F0
FB
FA
FD
E5
05
00
27
E8
FF
FD
07
E8
0B
CB
F2
E1
FB
00
FC
22
FA
FF
09
19
F3
ED
F4
0E
35
0B
D9
1B
FF
D8
D5
00
FE
FE
DF
0B
F3
14
F1
2F
14
FA
FE
01
16
13
0D
FD
0E
0B
19
F4
04
02
16
F9
F2
05
0F
DD
F4
0E
F9
F1
F7
0F
0D
F4
04
08
F0
F8
F6
08
F8
01
07
CA
06
17
00
E2
07
18
E9
00
FC
0A
03
ED
0D
28
09
DC
F2
04
13
DF
02
26
0B
EF
0F
F9
1A
24
F1
FB
E6
25
35
E0
EE
02
13
EA
03
14
13
E6
02
FF
E8
F7
FF
02
CB
E0
02
E8
E7
FE
21
E8
EC
05
D1
DF
FE
00
0A
06
DD
E8
16
FA
EC
21
15
19
F0
1E
F9
21
06
00
B7
01
28
1C
EE
01
07
31
E9
09
F6
31
06
08
10
1E
12
1B
E0
D0
ED
EC
FC
E8
ED
01
F4
E1
23
FD
0A
CF
10
10
0A
DB
E4
FE
BE
E1
0C
DD
0B
C1
B9
FD
2A
19
2C
1C
C8
81
19
08
BE
9F
02
08
CE
C9
04
FB
C3
C5
A7
0F
FB
EA
D8
FA
E1
0F
DB
06
13
FB
0A
FF
0A
1F
00
FA
C4
B7
03
EA
CC
C2
0D
07
16
91
11
F3
2F
06
EC
FF
EB
B0
FA
FF
D8
EF
1E
16
F0
03
1B
0A
F9
0D
B8
1B
0A
FC
E5
10
16
06
EB
00
03
21
17
D2
10
00
07
2E
03
F2
11
35
17
E6
0B
DC
10
EA
FD
A2
2E
DF
D7
2D
C0
EB
E1
0A
EB
AB
D6
2B
EF
07
DD
30
E2
1F
0F
FB
0B
FB
F7
FE
07
0E
07
09
0D
03
09
05
08
F3
0E
EE
26
18
0A
FB
31
2B
1B
F8
07
15
1E
C8
E9
21
F5
08
11
FC
0D
23
0C
13
E7
30
FC
EE
F9
1A
E2
0F
FB
22
9F
1E
26
FD
F5
FA
FB
0A
F7
25
C5
16
D2
22
F3
EB
4B
E4
CE
E2
F0
1E
B5
DD
C2
C7
D4
08
F0
E0
F6
0C
E3
20
F2
23
00
EF
F6
21
40
C0
17
1E
5F
D6
00
08
FC
F9
FE
E1
13
EF
B5
E1
0B
EC
DF
F3
08
F0
EC
F3
F6
E5
F6
10
0B
EE
15
EA
FD
EA
16
FE
EA
C2
3C
0B
22
D7
AE
F3
29
20
82
F2
07
26
81
0D
F8
3D
11
08
D1
CB
FF
0E
B8
C1
01
13
F5
C5
14
FF
01
CA
E6
F5
F8
08
FB
F9
FF
14
CF
F6
15
06
9F
D6
DA
F3
0E
FB
3B
F6
15
E7
E0
0A
10
F3
04
24
06
06
DD
C8
18
2F
F0
0A
0E
FE
DC
CC
C5
F0
E1
B7
D0
F1
0F
DD
20
18
04
F9
2B
D0
FD
E8
B7
CB
FB
F5
CC
CD
02
F9
D1
34
E7
F4
E1
DD
CE
C9
B4
1F
CE
D2
EB
9B
F5
39
DF
49
D3
E9
DC
27
04
A8
E5
21
A1
1D
E9
E7
F9
32
0B
13
23
CD
DB
E3
E9
1F
ED
C5
E6
1E
BB
FE
14
48
D1
3A
46
E5
D4
33
4F
C5
C6
06
0F
4B
4B
D2
D1
12
BA
0A
06
D7
91
DF
17
DD
00
F3
23
CD
D2
E5
F4
51
2E
5B
20
03
23
3B
D8
C7
0E
F8
B1
05
17
12
A7
2F
07
FC
45
1A
29
B8
CD
D6
23
24
9D
D7
B0
91
81
23
D1
36
DE
13
BC
AF
2C
EA
90
F2
FE
4C
19
FE
B4
C9
F7
F1
DF
D6
D6
BB
CB
EC
14
F7
F6
E9
36
05
0D
00
DC
2E
DC
E5
33
E9
39
2F
B2
01
17
31
0A
B7
E6
F4
ED
F3
C2
24
E0
17
EE
E7
C7
B5
D3
06
24
33
0A
02
D7
0B
CE
2D
DA
0D
37
13
A5
E3
FA
2E
B2
D3
AC
B7
40
AC
BD
D8
E9
1C
F6
1D
38
10
C7
CA
F5
1A
B7
3B
C3
09
3B
B5
08
33
C0
EF
B9
EF
32
54
0A
27
E9
BB
AC
0D
34
FB
C6
32
E8
25
D0
EC
D6
9D
91
A1
98
BD
D0
C9
45
19
D1
B8
D0
05
E5
A5
A9
2C
EA
B9
8F
E1
0F
E7
04
04
F2
F2
0E
08
DD
03
F8
01
07
46
0D
F9
EE
F7
17
27
12
09
E1
CB
FA
02
DC
03
12
13
F7
F8
06
0A
02
0B
0C
03
0B
FE
F3
0D
05
0A
F8
00
F7
F5
F5
0E
F2
0F
F1
00
0B
F5
F5
19
05
18
C4
15
17
E4
1B
09
15
08
F6
0F
1B
FB
24
FC
25
0C
11
E9
FF
0D
07
18
0D
E1
05
12
F9
F2
FD
F5
F7
12
09
0B
F7
27
20
FF
E6
F6
D5
03
13
05
F5
0D
24
FC
F3
06
1A
FC
F5
E1
E0
E7
FB
EC
0D
F6
18
F5
24
12
17
F9
FC
23
E1
EC
F5
0A
1E
00
D8
FA
0A
01
F0
12
02
12
06
08
F8
0C
13
0B
0C
ED
1B
22
F6
FB
18
14
EB
E0
0B
F8
DC
17
E0
13
E4
EE
DE
EF
12
11
EF
85
5D
32
C7
81
15
06
ED
0A
02
F9
FF
0C
06
FF
FD
0B
08
02
00
FE
DA
FF
DD
F6
F1
F5
0A
FD
10
E9
07
EE
02
12
32
E7
01
0E
CD
ED
FA
01
16
F6
E4
EC
0F
E8
E4
07
17
06
FC
F8
10
1F
20
EC
0B
0C
10
0C
F6
E9
FC
19
F0
D2
FD
04
1C
F5
E2
F8
0C
13
E8
11
12
09
0E
2E
27
ED
10
16
FC
05
14
0A
11
04
DA
F6
1D
1D
C6
81
00
B5
00
EE
E3
22
03
EA
2F
F5
0D
F0
03
08
F1
01
2F
F8
00
00
0B
FD
10
FC
EC
EF
02
09
10
F0
FA
0A
FD
F2
18
1A
1E
D8
D1
05
1F
F8
CA
FB
E8
FD
0F
02
F8
2C
FD
FF
F9
C6
31
FC
04
35
F9
F0
E8
D0
06
2C
EF
0C
E0
F3
D7
24
08
FA
0E
20
45
1F
F0
10
EE
12
06
E0
E2
0D
FB
DD
E2
0C
EB
0D
09
F0
E3
D7
B5
DB
9D
F5
FD
EC
FB
18
1C
DF
18
1F
11
F4
FD
E6
07
18
05
C1
E0
1E
1B
28
AE
FF
1B
02
23
FE
F8
0B
51
12
F8
13
2F
1A
33
B6
F4
FA
08
D8
FA
16
FA
D6
3A
11
FC
FA
37
C2
6B
DC
1C
17
1D
0F
E0
0B
02
36
D5
F9
03
32
2D
F8
16
93
37
14
F4
D1
0D
12
1F
D8
E3
08
6A
83
1A
06
D5
F1
FA
35
EE
02
2F
24
1E
31
1F
06
E8
27
F7
FB
2F
B5
EE
0B
D6
D4
0C
1B
F9
07
1D
0E
D4
FE
07
F1
CC
B6
DC
00
DF
F2
C9
D1
E7
08
D5
CB
20
54
EF
FE
DA
12
A6
EC
18
FA
F4
F6
2A
31
59
D4
E3
4C
E6
1C
1F
E8
04
FD
DE
DA
08
05
D6
ED
14
16
FF
2A
2B
29
CD
59
E8
F5
00
05
E7
F3
26
F2
05
25
1C
F5
02
09
05
0D
0B
F8
0C
FC
F8
F7
0E
0C
06
FF
F4
06
ED
DD
ED
AA
F8
FB
E2
AF
35
BD
DA
D1
4E
CA
1A
CF
D6
F5
18
E3
EA
0C
F4
DD
E8
0B
FD
CD
F9
2F
14
D2
5E
EF
B4
58
01
25
16
E3
F9
ED
21
FA
F3
19
29
FF
E0
DF
19
F4
1E
DF
01
E6
0F
0B
F5
02
2F
18
1A
20
03
23
15
F2
F8
3D
C8
F4
EA
09
CD
EA
E9
D5
C6
E5
3A
63
E1
01
54
DC
F3
EF
12
B1
06
F3
F2
FC
16
08
37
B8
FE
31
ED
F1
FB
E5
15
03
01
17
18
04
11
15
20
20
DB
ED
EE
FD
D3
1E
1B
20
04
02
0C
14
19
31
04
FD
F2
1B
D8
FB
0C
E5
02
08
E0
2B
0A
1A
D5
2C
3D
81
E9
52
33
0B
E9
FC
28
0E
09
08
16
0F
06
F9
C7
C1
37
2A
20
DF
FB
0A
02
FD
03
DD
11
FF
FB
0C
FE
09
1A
1D
09
18
1B
FF
F4
0E
10
17
1B
33
18
03
F8
02
12
12
EB
15
FB
E9
EA
10
0B
05
E2
24
05
DA
F9
E3
F8
03
13
F0
E3
FB
ED
F3
06
16
0C
02
D4
DC
1F
D4
EF
F3
07
E7
34
5B
11
01
16
47
C5
24
FF
F1
FD
F2
F0
0B
12
F8
11
08
FF
EF
04
08
0F
EE
07
FC
FE
1E
16
0E
0F
46
0A
E2
F7
E7
FF
DF
36
EB
F6
04
FE
11
00
22
22
19
0F
35
F3
28
F6
BF
09
37
02
F3
2D
C4
01
18
F1
20
07
34
07
37
EB
F4
EA
3B
1A
1F
17
E6
DD
F4
FA
0A
02
09
F4
EB
17
27
D1
BE
F7
E3
1F
02
F9
F9
2A
D9
FD
F1
22
06
E7
F3
E3
F7
C8
DF
FA
01
34
19
EA
0B
E8
F4
F9
13
08
FE
4C
2D
06
D8
27
14
2D
17
DE
02
F6
13
FC
FF
F8
EA
FB
16
EB
02
0B
D7
33
C5
32
D9
34
0D
F7
E1
E4
EE
04
F4
2C
28
18
F2
F7
AD
0B
14
2F
DC
E9
0B
1E
F2
D9
1C
2A
E9
31
19
E5
B8
27
FD
F3
05
FA
12
F7
FC
32
F9
21
24
F6
01
D6
CA
0C
07
E9
D4
0C
25
E9
02
19
2C
F9
2A
33
04
13
20
C7
FB
04
15
FB
EF
18
2D
0A
03
0B
7F
05
0F
D6
0A
CF
08
D8
E2
E8
20
0E
31
32
F8
28
14
1E
1D
0E
0F
EB
1F
0B
EE
DA
F0
F2
AD
DE
F4
0D
C9
26
F9
BC
2A
0F
F5
EF
D9
C7
16
28
19
CC
1F
07
00
FA
F2
E7
F1
04
07
01
0C
08
12
03
F5
06
13
0C
EE
EC
00
F7
FE
FE
34
F9
D6
0C
BF
C2
C6
4C
1A
F9
00
1D
FB
F4
FC
37
2A
2A
11
E6
14
F3
87
EA
2F
FE
DA
16
FD
C6
0E
2F
DA
C9
11
E9
22
1C
27
B3
18
1C
F3
E4
F5
0F
1C
D0
0C
0B
FA
D6
12
09
1A
A7
2B
00
21
2B
E4
0E
22
C6
C6
FB
0C
AE
B2
D8
85
DF
E5
CE
BA
05
11
DE
16
A7
F2
07
0A
B0
AF
FE
DF
DB
DB
12
02
F0
DE
C6
8A
0A
F5
F7
05
DF
08
EC
09
08
11
1B
12
62
B0
0F
94
0D
01
04
EF
0F
FB
BA
1E
05
29
DA
33
0F
E3
10
C5
06
2A
25
FC
0F
36
F3
D2
15
18
21
8B
14
BD
E9
DB
0A
F9
28
2E
EE
FF
07
28
E6
15
06
1D
33
FF
43
C1
16
FA
08
ED
FD
20
02
04
0A
25
03
12
F7
1A
FC
14
E1
3E
1C
3F
C6
05
FE
48
DF
1E
EF
25
29
40
E4
13
C6
0E
11
08
A1
E8
52
26
81
39
3A
DB
D8
B6
1A
2A
05
C0
E9
F7
00
D1
FC
02
EC
2E
18
6C
1C
11
32
C3
05
F5
2C
BB
26
C0
18
E8
2C
BE
3D
F6
FC
FB
FA
F7
06
01
F0
F2
FE
13
0E
03
13
ED
F0
FC
D3
DF
E0
C4
C6
31
1E
22
FB
0C
18
13
E3
01
FF
BB
23
CB
08
2B
00
E8
10
44
25
03
24
47
21
DA
08
EF
13
BE
31
C3
0F
05
11
81
04
E3
1C
BA
0E
FB
04
F9
1D
EE
24
F2
F1
D2
D3
01
0C
FB
BB
F6
62
BA
CF
38
2E
49
B5
3F
FB
EA
DE
E6
06
EB
F0
F9
2E
DC
F8
6A
72
53
D3
11
30
F4
A9
FD
1E
FE
DF
FB
15
EF
DC
FB
55
D8
D2
E6
0F
C2
08
F1
11
CC
F6
1A
DA
E9
FA
01
DB
BC
A9
B3
B7
C1
AB
FD
F3
2A
CD
19
79
E4
00
E2
18
FE
91
1F
0F
0C
CF
D9
F6
F6
16
F8
FD
F1
32
07
12
CF
27
32
44
DF
C5
19
10
02
9F
E3
FF
01
C1
0D
E3
FA
33
0F
02
E1
EE
0B
E3
0B
F1
19
30
2F
1F
04
34
CE
16
24
0A
CE
F6
35
F7
D4
FC
D0
F6
C8
F1
E0
3B
F4
00
4F
1B
FB
1A
03
FF
F8
23
07
DB
39
D7
2C
FB
CA
C5
0A
F2
99
B7
C4
03
AA
CF
8F
EB
F8
8B
ED
FD
FD
9C
A4
9E
AB
E6
C8
B6
AD
0A
A2
9C
9D
BA
19
D6
E3
EA
1B
D2
D5
07
13
0E
30
D0
13
FA
C5
17
32
B5
FF
1D
06
E9
FC
E6
A5
AB
E5
A3
9A
F2
FE
DE
16
15
0E
DD
EA
11
DF
98
B7
F4
BF
16
F2
9A
96
81
95
A1
DD
18
11
A9
15
18
FA
DE
9F
FD
B1
D5
12
E7
02
9A
06
BD
E8
B4
D8
DB
A6
BA
2A
1C
06
F1
EF
28
F8
96
FE
CD
C7
DE
11
B2
E7
D3
92
CE
00
1B
00
EE
A9
D5
16
D5
EA
A7
D9
A1
EB
CD
E7
DB
A3
95
94
98
A7
95
F8
B4
DC
9B
00
C1
F5
C0
B8
CD
2B
D8
A1
08
D4
06
AA
E3
C8
27
AF
14
AE
A6
C7
20
DA
CD
F3
13
B2
D2
97
E8
32
24
A3
BB
FC
A2
0C
34
E6
00
C2
D4
0F
AE
BB
87
26
D7
F7
D7
F5
A0
91
A8
B1
0A
99
11
BC
03
E6
99
28
CE
D1
C5
15
B0
E6
FA
E8
12
1F
34
C8
DE
EA
23
23
1B
09
13
A8
A8
EE
CF
95
22
D8
1A
CF
BF
AD
E2
1C
00
99
CB
9F
DB
18
1C
B1
0C
9A
E9
E7
F6
C2
F1
10
B3
EC
C4
E5
BA
0B
C2
DA
FF
09
3C
04
DE
D3
F9
20
E1
20
E3
14
D6
1E
FD
F1
EE
F8
0F
EE
0C
F8
F4
06
F2
0E
F1
08
02
0A
FA
FB
07
05
01
04
E9
FC
F0
B4
CE
EF
0D
FE
2B
01
28
26
11
26
1B
14
D5
F8
DE
D8
BF
D0
DD
F8
D0
0C
0E
4B
EC
00
30
46
8B
1C
EE
F3
04
27
03
25
09
D7
E4
04
0E
E5
21
D0
27
F3
B1
E3
05
C6
B5
B0
F5
E8
F1
CC
FB
0B
19
3C
1A
F9
EF
17
FC
05
A8
F6
F0
24
EC
FF
DB
10
EC
E3
E7
08
D9
24
1A
35
DF
10
31
0D
2E
04
2B
06
F2
FE
ED
DA
1D
EB
FA
01
0F
17
01
01
ED
07
F5
0C
F9
EE
24
35
7E
3C
25
04
7F
37
0C
FF
F4
26
FE
04
CF
04
16
CD
27
06
F5
F2
F6
06
F7
0B
ED
06
E4
FF
FE
10
D5
35
08
2D
08
10
3B
45
1A
0D
12
1C
18
0F
F6
E5
1A
26
ED
01
1C
14
19
24
10
02
DC
08
00
10
B8
DC
ED
DC
EC
0A
DA
F8
F6
DD
D6
EA
E0
D0
DD
D7
CA
E1
26
03
E1
0E
EA
E5
C8
03
0A
1D
31
BD
1F
F8
32
EF
FA
0B
09
1E
C5
BE
ED
CF
07
EA
D2
EB
EE
75
FA
F1
0E
F5
0C
9E
05
2F
11
0B
0F
0D
F1
14
DD
06
E9
E8
FB
11
ED
EC
0B
F8
F8
F5
F9
05
FE
0C
EC
07
0D
14
ED
E5
06
19
12
F4
FE
F9
13
36
18
FC
0B
13
16
0D
09
DA
EB
09
02
E9
03
EE
0A
0B
26
3C
E6
F6
19
11
1C
FC
08
F2
06
1F
ED
25
05
EB
FF
28
2A
1E
07
10
23
F1
15
23
10
AF
E3
D3
EB
C8
E4
B6
D1
C5
EE
9B
1E
E2
D8
0B
0B
FB
06
FF
FB
F8
07
05
00
EF
FF
1E
18
07
DA
20
26
D5
C9
1E
1B
20
FF
13
F1
18
1B
E9
22
F1
DA
02
29
0B
27
47
EB
1D
25
F8
FB
06
1D
1C
C0
B1
26
1D
F0
D1
DE
F5
25
38
27
81
6D
13
00
A2
F8
FC
B3
00
FF
F2
EC
E9
05
01
E8
FA
05
08
AA
FD
0E
01
F8
30
21
F0
29
04
F4
EA
0D
DA
1B
FD
2B
EB
DD
0C
BC
30
1B
07
F1
FD
D7
E8
F5
AB
EF
07
01
11
21
F9
4F
1D
0D
FC
12
FD
14
22
FB
ED
F1
05
C2
EC
DA
F2
D7
FF
FD
D0
05
0D
02
F1
18
02
B1
22
0C
B0
20
1D
14
FC
F7
22
04
02
D9
1B
BF
E1
D9
24
EB
CE
E3
A5
CE
31
09
FB
DA
04
FA
E7
FC
F2
24
F3
E7
EC
0E
F5
0D
F3
0F
FB
13
F8
0C
EE
00
04
F7
13
08
09
2E
45
2F
09
38
0D
0D
E1
15
15
38
EB
F5
1A
29
DC
31
18
F5
3C
2C
FC
2C
24
14
25
0F
29
F1
1A
F9
EF
F6
2D
F1
E4
00
F9
FB
1A
1F
EC
05
17
0C
FC
0D
02
FD
DE
D5
ED
EE
E8
1E
11
AA
07
21
0C
AE
34
06
BF
01
09
15
F1
FA
0C
13
FB
04
0A
F9
14
01
19
BB
20
AB
36
FB
EB
04
32
09
F9
FE
0C
0A
11
F9
F4
16
FA
F8
17
BD
0F
29
3D
3E
1E
E5
03
F2
EF
13
E9
09
CE
4D
2A
56
9E
2B
4B
11
88
FF
E8
DF
BF
1F
48
81
96
03
0D
06
D4
EB
2E
F0
B2
E4
2C
CD
DE
E2
48
FA
99
D9
0F
F4
D7
F4
63
51
14
0D
01
1D
2D
D3
0F
13
01
0C
04
1F
04
10
26
39
16
E9
F6
1E
21
D3
C5
23
15
BD
DB
EC
F8
C8
ED
E6
F3
BF
EB
DE
8F
9C
17
D9
82
B5
43
1F
DB
C1
06
2F
23
E5
FC
09
EF
D0
0A
2D
D6
CB
3C
E7
38
3E
B9
99
3D
05
4B
D6
3A
3A
0A
A3
A8
60
EA
34
F1
B6
DB
03
84
B7
AB
17
81
C2
8B
13
FE
49
EA
46
E6
13
B9
E9
3A
34
B9
FB
BB
D5
5A
43
07
0E
C4
BE
99
51
41
CC
37
37
37
E5
2B
57
3C
E3
E0
AC
E3
1D
FC
DD
32
DE
33
29
B3
8D
50
D8
D0
1F
E5
65
5C
F6
EB
A7
2F
14
CF
E7
91
2A
AD
D9
B7
8E
02
8A
2D
4B
21
00
C3
D9
D5
E9
15
EE
FF
00
A2
AA
95
D1
29
97
E2
CF
EE
17
48
31
38
0C
1D
0C
CC
DA
DE
BA
30
CB
DF
49
53
37
9B
3B
32
A3
CC
EA
0D
09
AF
D0
3A
EF
E3
4F
9D
20
F3
C5
0B
E2
4A
31
24
C8
ED
B5
40
49
EF
B4
DB
D3
41
40
A3
61
24
E1
C6
BD
05
D5
25
C3
B5
FC
ED
F1
A7
34
0E
96
29
C1
38
EB
9F
D0
DD
06
49
29
F3
99
EA
11
9B
B0
07
3E
E3
04
AB
F6
C9
AB
E8
DB
58
C3
FF
4D
8D
1C
2A
10
F7
B4
49
9C
AC
9E
36
EF
3B
95
A8
40
E1
20
E5
ED
D8
8B
28
D7
AB
92
DF
E6
8C
DB
3D
F7
00
17
3D
0A
F9
8A
FC
D8
FA
15
04
17
F0
E2
33
13
07
E4
34
11
C5
1C
22
D5
15
29
DA
06
0C
12
26
1F
09
1B
1F
11
D2
F1
14
0F
0C
EF
F3
06
02
0A
07
0D
FB
0C
0C
03
F7
F8
EC
22
0F
B2
0F
08
DE
C9
DC
F7
1F
F0
E1
BD
2A
EC
E6
15
01
04
DC
03
F5
CC
D1
21
F1
ED
2B
22
DC
FF
0E
D5
2E
29
0C
F5
FD
23
0F
FC
C7
15
FC
1C
D1
EE
19
DC
E7
09
03
27
E7
E0
FC
28
EE
F9
DE
4E
25
E5
EE
C4
EF
ED
C7
3E
07
11
F1
17
33
2C
4C
41
40
7B
36
E0
CB
F9
D6
EA
C9
03
01
F3
1E
0A
29
FD
24
05
EB
1C
E3
23
E5
20
2D
ED
AD
0A
0B
00
E1
FB
FF
0F
0A
EC
34
F2
06
A8
F3
15
EE
D2
E9
5E
05
F6
08
4A
DF
FD
13
06
3C
F9
10
E3
07
F1
D8
1E
1A
FE
BD
F0
7F
F7
FA
E8
2C
0A
06
02
CE
EC
F1
14
F5
04
00
03
04
EA
E2
0C
20
E8
15
1B
05
01
F2
0D
FC
E3
FC
06
05
0A
02
D8
C9
0D
D2
BE
C6
1F
ED
D3
CB
FA
C5
B3
DA
AA
B4
FC
13
2A
87
E7
FD
36
07
DC
05
43
B2
C9
2D
08
20
49
1C
BF
05
4A
8A
17
F1
A4
EC
CF
9A
F5
34
3A
26
1A
2A
06
14
F1
A3
4C
1A
45
DB
D4
F3
C0
C3
19
1F
1E
B6
E3
CC
15
EA
AB
36
C6
37
FD
37
5D
15
33
0B
B6
3C
DD
90
CA
EA
2B
2D
EE
47
FE
DD
AC
15
EA
FC
CB
F5
1C
2C
FA
49
81
90
11
32
1F
2C
D4
E9
FB
9A
1E
BC
AA
DB
ED
F0
D3
F3
51
C6
37
EC
0D
D9
41
0E
0F
01
FD
C7
37
DF
AB
1B
00
04
1D
FE
EA
AD
84
B8
2C
15
0B
96
49
DC
8F
E5
FB
E7
97
83
F8
4B
F7
A8
BB
F9
ED
8D
95
A0
1C
F3
D9
20
45
08
B1
43
D6
05
47
31
2E
B7
F7
47
87
D0
DF
A7
05
9D
CD
EB
16
C6
14
25
E5
F2
E7
D0
4D
BB
EB
A8
D5
C1
04
F2
EB
C6
CC
AC
94
9F
C3
56
F8
01
23
BF
C7
45
CC
19
C3
ED
D7
F0
96
AC
E5
35
D9
2B
1D
89
37
00
0C
D1
E8
4A
A1
12
4E
17
B3
20
40
FD
BF
23
BF
97
40
D1
23
C8
59
B3
A8
1F
1D
C6
1E
E7
D6
A5
3A
42
F2
F4
9F
DD
B3
30
F8
B8
96
21
AE
29
02
BC
01
3F
C8
48
22
EF
16
18
F3
08
0D
FF
FC
E9
13
DC
E9
D7
13
EE
F6
EF
FE
21
FF
E7
FE
FA
11
02
14
EA
07
FA
2C
00
0B
06
00
FC
0A
00
FA
03
05
F4
03
04
06
FF
06
F5
FE
11
0E
0F
FA
10
0F
FF
FE
01
03
05
29
F1
EB
1E
00
14
FE
05
05
FD
2C
1D
FF
FF
EC
D5
0F
1A
05
00
BF
F9
13
03
0B
FF
F7
32
12
2F
ED
F3
F1
16
13
EF
2B
0F
00
08
EF
01
08
FB
EC
FF
01
F3
BD
C5
D9
FA
01
F6
1D
0B
F1
E4
17
0C
F8
E0
F6
E4
F8
EC
F1
0E
F2
1A
26
1B
F1
F2
10
0F
0C
F6
0D
FB
24
FF
FF
FC
E2
F4
06
99
F9
FD
F2
F7
0E
F5
E8
0A
07
0C
01
F0
0C
C7
C4
D3
E8
D6
29
16
E5
DC
E1
26
0C
FE
FA
0D
0E
F5
0A
AD
0A
F8
09
1D
13
0B
01
E9
09
FD
44
CA
CA
1C
EC
A3
0A
06
08
0D
FF
F3
FE
07
0B
11
08
0B
08
0B
CE
81
0A
FB
FA
E7
F0
13
00
13
09
1B
F4
F7
29
D8
FB
EE
F8
0F
FB
0A
F8
DD
0A
08
F3
D4
10
08
24
2E
E2
0B
DC
FD
07
FD
EB
DA
20
F3
08
E7
0A
FD
00
30
08
D4
E8
DA
CE
08
E0
D7
DE
F0
ED
F4
F3
FD
09
D3
81
02
2E
DB
DC
EF
1E
01
DF
DD
40
23
19
13
0F
11
16
05
F6
FF
F2
ED
0F
F3
EE
F8
F8
FB
10
F4
F5
26
2A
39
D9
E8
F0
F4
C5
3D
19
25
A8
49
57
0A
F2
1A
14
04
EB
EB
F0
EC
0E
FB
16
19
12
FA
22
4A
68
01
98
14
10
BF
FC
16
26
FA
D2
D0
FF
E2
E7
EC
06
0C
2A
03
F6
F1
F3
E0
EC
BB
D1
D3
1B
20
0D
DD
E5
BE
3D
E3
F5
CC
FD
FE
E3
D3
F6
03
31
EB
31
22
B1
CE
F9
CA
D8
C7
0A
DA
FB
F9
FC
F1
41
5D
E3
01
BE
C1
F5
7A
E0
FB
FF
27
FA
EE
07
03
F1
C9
FB
17
F7
2A
B4
FA
03
28
E8
F6
F6
22
CE
68
E7
49
EB
37
05
16
0F
FC
FC
DD
0E
56
05
CF
3A
38
1B
B6
57
DC
03
E5
B1
3C
05
24
58
F8
14
1F
E2
19
F4
F7
F9
06
EA
EB
15
3C
23
4E
22
02
10
17
09
51
DC
08
23
2A
26
41
FC
48
21
1A
ED
07
D8
14
04
EE
F4
1F
F3
02
37
03
16
DF
06
0C
1C
0A
1B
17
3A
F1
19
4A
49
04
11
99
03
F5
FC
00
F9
00
9D
08
CD
AA
39
E8
3A
19
A2
C6
03
DE
06
19
24
DB
2A
B2
E1
CE
8D
CB
AB
9F
33
C1
BB
DD
0F
1C
F0
ED
DA
C9
4A
E5
25
03
07
C7
19
C1
0B
AD
44
03
F4
ED
2E
C1
23
41
BC
2C
33
27
0D
AF
DD
93
F6
FA
CE
3C
04
41
15
D2
D7
C2
CF
AA
B2
81
19
B7
AD
E9
20
DD
B8
B7
01
E2
AE
03
AF
BE
DA
9A
FE
F8
99
83
F1
CE
A8
BF
E0
01
D6
18
D6
3E
E4
9F
19
9C
FB
D6
AD
E9
B4
A9
0F
DC
0A
35
11
A9
88
EB
16
AE
CE
84
E0
D2
CF
9F
A6
E6
E6
A3
DE
D8
08
D7
C2
3D
C1
AB
BD
D9
A8
DA
B5
B8
11
E9
F3
AD
2E
F8
35
B2
C9
20
91
E6
F5
11
22
A8
B9
D7
A6
F4
C3
06
91
B3
BE
2F
E5
02
C3
2B
2D
F0
E5
3D
F6
FC
C6
BA
19
1D
F4
C3
8F
AC
E6
E1
F5
08
19
B2
C7
B7
A9
CD
1C
C1
CE
F1
11
06
0B
DF
91
D0
D0
F2
AB
B1
FF
D7
FB
A3
AD
A4
13
27
A5
BD
C1
13
E5
9E
10
C5
C4
F9
E2
91
1C
10
DF
91
34
28
CE
39
D8
14
B8
D6
FF
C6
E9
1C
F5
0E
1B
01
F5
FE
07
06
0B
F2
0E
06
E1
F3
24
18
13
DF
01
DC
00
EA
FF
D1
0F
EE
1B
04
04
02
05
06
F7
00
02
FE
FD
FA
FF
03
F6
06
01
F8
ED
10
E8
FE
F8
18
15
0C
F6
F7
07
FF
CB
1E
03
D0
0F
11
FE
E8
08
0A
21
0A
1E
E8
0D
00
FF
D6
09
0E
03
FC
F5
F2
22
D4
15
00
21
F5
08
15
F7
F9
14
F8
1A
FA
E0
04
EC
23
0D
11
E8
00
0A
1B
0C
0F
DC
F5
D7
F2
FC
18
F1
0D
11
03
09
13
04
FB
0E
F5
02
04
E6
E7
0C
E0
19
0A
01
CF
14
F9
FD
EC
0A
ED
F9
EF
07
1A
32
19
EE
E8
04
1F
0E
E5
F6
10
DB
F0
00
05
02
CE
59
21
F2
D9
27
04
01
CA
0E
E0
44
2C
E4
81
EA
F7
07
EF
F8
07
FD
3E
10
09
03
19
F9
E8
19
0B
0C
10
0B
DA
03
D6
12
05
0F
D9
FB
05
F6
1C
0A
D2
27
04
06
E7
F4
10
1D
27
F6
0A
04
2C
00
21
00
F4
23
D7
F6
2B
18
F8
05
2E
0A
EB
04
FD
E7
E4
ED
E8
29
F5
FE
2B
FE
01
F2
FD
00
EF
05
D4
0F
00
F6
E1
FE
DE
F5
07
F9
0D
17
0B
F9
F8
E7
0F
19
14
EF
01
13
F0
2F
EB
F3
FC
14
1D
F7
10
16
31
D9
01
FA
FA
F9
04
0C
FD
F8
F6
09
01
F4
FE
0B
FE
FC
05
04
02
FF
04
FB
12
0D
16
04
F9
F9
F3
FB
EA
F6
E7
F9
05
26
0A
F9
15
1F
12
11
29
0A
06
FE
E9
F3
32
FD
F8
0E
FF
18
E4
11
01
10
14
02
1B
F8
EC
0B
16
05
F8
0B
04
EC
06
16
04
FD
07
1C
11
ED
01
0C
07
00
F8
0D
04
0F
09
17
F9
1C
0E
F4
E8
F1
0F
D1
FC
E6
E3
F9
F2
16
17
F6
0F
01
10
FF
F2
F1
F7
13
F9
FD
E6
18
2E
FF
D2
EA
F7
FE
FC
F8
05
05
0B
04
F4
FB
0D
0B
DE
1A
F0
3B
1D
08
F3
04
DD
E8
FC
00
E1
02
0D
07
0C
E0
BB
0E
1D
09
E9
03
20
15
F2
FA
FF
EC
0B
0A
26
05
CC
06
EC
E5
EA
0B
FC
EF
ED
0A
F9
13
0C
F6
04
CC
81
00
23
F2
C8
09
11
FF
E3
03
1B
EE
F2
1C
EF
05
D2
F4
FC
FD
FC
11
F5
06
0C
17
06
FD
1E
F6
EF
F1
12
DD
04
F8
F3
FC
FE
FD
03
FE
11
17
DB
4A
F6
FE
0B
19
04
2B
FF
F4
D9
0D
25
4D
29
E4
EC
E1
BE
04
1B
34
A1
0F
00
19
D9
06
45
BB
07
16
06
08
F5
FA
09
ED
F6
F3
09
EB
06
06
0F
08
FC
11
FD
38
28
21
57
23
38
24
03
E2
FD
05
C6
12
F0
E0
C1
45
3D
F6
11
24
28
4B
2D
F9
F2
1E
EA
C9
F0
19
DA
F9
FC
FF
BD
21
F4
F2
1E
01
43
02
F2
05
04
23
22
49
1E
C4
25
F3
24
FE
26
28
FA
01
33
0A
1B
07
EB
25
1B
2A
04
06
FC
5D
E4
37
D2
3B
04
D0
D1
B5
FE
C6
01
56
1A
E0
F9
EA
FC
09
FE
D4
DF
4F
F7
F1
F7
EA
4A
2D
98
E4
E2
0E
F9
E9
05
F0
F6
03
1B
03
EF
F8
DA
D7
FA
FB
2C
1B
E4
23
D1
E8
CE
2F
FB
F5
20
F3
30
DC
96
00
ED
03
19
F4
19
0E
E8
C0
4E
34
B0
B5
24
E9
81
E8
E2
D0
EF
11
14
0A
EB
3B
16
12
1C
06
42
AF
F7
EB
1D
F6
EB
F0
0F
F5
FE
13
2A
05
0C
45
E0
0B
17
1D
05
0A
34
F1
FB
1C
2A
35
2A
36
38
33
04
0A
02
DF
0B
1A
0F
F1
E3
ED
26
28
0F
18
1E
CC
9E
1B
01
AF
C1
27
FC
B0
B7
92
BD
46
9D
04
15
03
EB
FB
1F
0B
EF
C2
82
8F
BC
BB
11
24
84
D8
A2
3B
B2
CD
AE
E1
B8
D4
35
4C
BE
53
2C
A8
3F
0A
D8
C3
D6
E7
AF
E9
BA
01
D9
B5
B5
BC
A1
C9
EC
C3
30
F8
3E
23
18
D2
B1
C0
BB
ED
EE
1B
3D
FE
17
1C
D2
BB
BD
B5
A1
A6
A6
88
C4
81
8E
D6
D2
D4
93
D5
90
BC
9C
D6
BB
88
BC
36
E4
C7
C9
C3
DA
8C
03
FD
E3
9D
B1
9E
B9
D8
C2
1C
37
E3
EC
E7
11
D7
A3
BE
10
D3
CD
DA
C7
83
11
CB
13
13
B3
EF
D4
F0
FE
2B
98
9C
0B
F3
1D
9B
86
F4
AB
8F
BE
29
29
CC
F9
AE
13
F1
85
92
B9
14
2D
86
24
18
C0
A7
F9
E7
BE
0E
85
00
C6
AF
B7
83
FF
2D
F4
8C
C2
AE
D9
0B
AC
84
9E
26
05
BF
B9
AE
0D
35
BF
F4
CD
AB
88
2C
9B
EE
38
FE
DD
1B
DB
0D
0A
C7
FE
D3
A8
F4
F5
27
29
29
02
D1
C0
0F
04
32
D2
10
E7
D8
CD
22
93
1C
8C
34
CC
B3
BE
23
F3
C5
98
8E
92
AB
8A
39
F9
DF
10
FC
BD
F7
2B
05
E9
CA
F2
EE
35
08
1D
36
0D
F9
17
3E
0D
18
07
CB
F4
FF
17
DF
0B
38
0B
D3
CA
26
E8
0B
DD
0A
01
01
F8
F7
FE
FF
14
0A
F4
03
12
04
E9
07
FC
E7
35
51
C7
B9
D7
26
1D
B2
00
FD
3F
A1
E2
0C
23
D9
E2
23
03
03
D9
D9
ED
29
D6
17
4A
27
E7
2B
32
70
FA
D8
5A
FD
12
05
FD
15
E8
D4
07
0F
D7
06
F4
E1
EA
35
E9
06
DA
FB
14
F5
EF
0D
E2
FB
03
1C
F5
17
A5
DA
28
0F
03
E2
36
15
0C
1A
0C
20
31
33
2C
1F
EA
81
24
27
F6
D9
15
15
27
DE
E9
E8
E5
C8
E7
0E
95
CD
57
15
F2
07
E8
16
EF
28
D0
EF
D5
0F
ED
90
07
1D
29
19
D0
3C
E6
3D
38
01
D2
43
D9
93
F7
0A
F6
4A
28
E3
C4
42
23
30
B8
56
48
27
82
08
17
52
A2
CB
31
24
E4
27
D5
2A
E5
05
EC
06
13
D7
E7
E6
BE
5D
28
07
D6
35
E6
06
F6
19
06
1D
E5
F1
2C
F6
10
29
D0
18
FF
1A
F0
F8
DC
03
E7
F1
FE
EC
F0
14
D9
C6
17
FA
37
E3
2E
15
F5
27
3D
2A
33
26
C4
F1
28
35
00
F1
10
24
FD
EE
00
0C
F3
2C
16
03
01
04
B8
DC
17
F4
E3
1D
FD
FD
05
06
0B
0C
39
FE
1E
F9
0B
10
02
FA
FB
0A
FB
0E
0F
EF
0F
F6
F4
02
FE
FF
22
2B
1E
EE
EA
DF
DD
1B
19
0B
F7
F0
12
2C
F4
EB
15
04
10
F6
15
F1
FA
10
37
1E
01
06
F6
17
1F
7A
03
C5
F0
0D
06
E6
F9
01
FB
D7
D9
F3
15
EA
12
FA
E3
FC
0D
EC
F4
19
1F
D8
DE
FB
F0
D8
2B
19
C2
D2
06
29
FC
01
0C
4E
0F
16
D7
3B
01
27
DB
E1
05
D4
04
ED
D8
0A
F7
08
E9
EB
0C
EE
E3
F7
4E
DF
EA
D4
EB
D0
01
FC
FB
E4
F2
F9
13
1A
FD
D1
D4
EF
E8
07
28
C2
10
26
10
D1
E3
0C
0F
CC
81
FC
2C
DD
DA
F8
1B
27
06
E2
07
21
F3
F1
1A
1B
D5
0B
DF
23
DB
1F
E9
AB
CB
14
1C
13
F8
E0
11
F9
E6
ED
04
1C
1C
22
D0
CB
EE
1C
2C
22
22
01
1E
28
F1
F2
0F
2C
17
0F
FD
F8
23
F7
DD
EF
ED
F6
DB
D7
F5
09
04
FA
0F
24
0D
35
F4
1A
EE
3A
24
E8
F6
42
1A
DE
56
68
05
AE
D4
D2
90
16
C6
17
94
E4
AC
19
C4
1B
F7
06
F0
FA
C9
C0
E5
9A
09
DB
8B
E9
82
CB
C2
DF
CD
0C
F1
07
4C
DD
EE
EE
D4
E0
4C
E1
F8
45
DC
C7
CE
4D
24
E1
CA
9A
9A
90
13
BB
D4
EE
F6
CE
EE
C3
1A
F1
B7
14
A9
DC
CF
C4
CF
A9
F2
92
ED
CE
E7
0F
A5
A7
CD
10
C7
BF
28
8D
83
B4
8B
C5
13
C3
90
F3
B4
E3
F5
D7
8D
FC
81
04
A6
92
D3
A9
A2
AE
EA
9C
94
14
C0
C0
AF
B8
12
8A
E6
9B
1C
06
A9
E1
B0
B6
CA
A5
D1
92
9C
C7
C6
B0
02
F0
14
C1
87
C6
BC
C4
D7
18
EA
BD
A5
18
E4
FC
E9
D4
A1
0D
F5
B4
02
B3
04
B7
DC
DE
1D
18
E4
1B
17
DA
C1
B3
94
FB
8D
DA
B8
B8
0D
CE
16
CB
18
B3
F2
8C
A1
DC
CF
89
C8
B9
89
21
C3
8C
FC
C3
83
B6
D9
CE
B4
8F
FD
2A
0C
20
BA
E1
20
02
A8
06
16
0D
13
C7
A2
08
12
8E
CE
A6
C9
92
11
2E
DC
11
3F
3B
C2
AC
D5
46
D3
F8
BA
45
CD
00
DE
E7
B4
CE
88
00
F3
97
A3
B8
B9
D3
0C
C0
AA
A5
FE
02
F2
F6
06
E2
FF
1C
03
F9
0C
17
10
00
43
14
E2
05
F3
31
81
00
FD
16
2D
00
07
F2
19
DF
D3
AF
F3
F6
0C
F8
F4
F2
FD
F9
FC
0C
0A
08
F2
09
FF
02
02
06
FD
01
09
E6
0A
FE
1F
D6
0E
EF
1C
E4
FF
F5
30
F7
F4
FC
06
F6
03
FA
E1
F6
08
0F
F0
E5
16
17
E9
F2
E4
3E
CB
F4
F3
01
DE
FE
F7
FB
21
14
EA
C9
F1
0B
FF
EA
1B
0E
FB
EF
0B
0B
E3
FE
08
38
09
13
C1
21
2D
F5
22
0C
19
E6
0E
01
E7
40
0E
F9
28
4E
EA
F6
BB
E8
04
F5
EF
E1
0F
FA
EF
F3
19
E2
C8
10
D7
0C
D7
C2
0A
FF
E4
F3
F5
0A
E7
01
EF
ED
F5
E9
1C
B3
CD
3B
14
27
F7
0F
00
25
1B
37
F4
FC
83
08
E9
FE
EA
E7
30
16
E7
1B
0A
07
EA
09
FD
08
E9
C4
FC
F4
12
0E
C9
1B
B8
EA
FB
25
0C
0F
19
FD
D0
EA
FF
FD
1A
E5
47
F7
E7
F9
FE
0F
F2
17
14
0A
DA
EC
1F
F5
DC
22
CB
E1
DF
0A
D6
0E
F9
FD
19
F5
D0
E5
E4
D0
D3
D6
D2
30
EF
12
13
21
FE
E6
16
FD
EE
FA
E0
F0
DD
F2
04
1E
11
0A
28
F7
F0
30
F8
D6
81
CE
E2
EE
F9
0D
09
30
D4
2B
0E
31
C5
03
F3
F7
F6
13
D9
FB
F4
16
01
FF
04
04
04
0B
11
09
00
F4
06
FC
F2
20
3C
06
F2
D9
2C
20
23
C9
26
19
0F
E4
0F
01
3A
07
FE
FC
0E
1E
E9
F7
31
14
E8
0E
18
29
FF
0A
3F
D2
E5
0B
17
1D
F5
13
17
13
11
E0
07
FB
01
FF
E4
E3
F4
ED
EF
F3
12
FE
07
0A
F4
DF
E8
FA
8F
A5
C9
EE
0F
0E
0C
08
E7
1E
FD
2E
FE
1C
DF
18
02
EE
DC
C9
0E
35
0F
BF
F8
1B
07
1C
D3
F7
2B
60
05
FA
1D
18
27
F9
B2
D4
E7
E2
D4
F4
D0
01
E9
0F
FA
0B
F2
13
F8
09
11
11
0A
28
43
F5
F3
F0
41
14
F4
F9
10
06
07
07
CC
1B
1C
18
F4
EE
07
2B
C7
DB
F2
68
A2
05
F7
25
CF
F2
1F
D2
E8
FA
05
F2
04
26
12
F5
20
FE
FB
05
AB
F7
0B
DF
FC
0E
15
FA
14
06
14
FD
F5
F1
F5
D9
F0
ED
11
EF
E3
EF
E5
F6
F9
EF
CE
18
09
DD
FA
06
12
B5
0B
05
EA
C2
F9
08
14
54
D5
32
44
10
D5
B0
D4
FA
BD
A6
FD
FF
DA
23
C9
FB
F6
09
E1
96
EE
E1
D6
09
1A
CC
E4
F8
DF
FD
F8
D0
20
CE
B2
39
1B
E0
1C
17
D9
1C
0B
ED
0E
38
4B
FA
E6
F7
CB
2B
B9
DD
91
35
DA
A7
00
B1
37
21
29
D3
27
AF
18
0A
C1
A9
BA
EB
F9
9E
B3
FD
A3
14
E3
35
32
36
0E
B8
06
AF
2F
04
38
EA
F9
E0
11
07
CB
86
0E
9E
8E
CC
F9
1B
B1
97
B2
3F
BE
D7
FB
17
9B
B5
97
87
FC
9C
BA
96
E6
A4
26
BF
C9
E2
E6
DE
1F
23
36
C3
CD
FE
A4
A6
B3
DB
ED
81
19
AF
D7
DA
C4
BC
14
E8
AB
D1
07
DF
EA
CD
D7
BC
0B
E3
AA
07
4D
11
14
1F
09
0F
A7
B3
EB
21
FD
14
48
37
04
04
28
B3
C6
FB
3C
09
A1
08
F8
B0
2D
FF
ED
E5
E4
D9
08
08
DD
35
BC
11
DF
BC
B2
AB
20
FF
EA
0A
EF
CC
E2
07
BA
D2
DB
CA
9B
EA
DB
F7
C1
F9
F6
0F
D9
50
21
B9
FC
B3
4B
05
A5
0C
36
13
97
FE
2B
E6
F5
D9
1A
97
AC
16
07
C7
F5
90
EE
DD
FA
F8
C6
AD
82
CE
95
A6
91
E2
9E
EF
AB
D5
31
A3
0C
E9
0C
F2
0B
26
38
EC
32
E6
EE
15
E9
4E
AE
06
0D
07
0C
0C
29
FF
1B
E2
F7
BF
00
01
07
FB
11
10
FA
00
09
01
FB
F1
F4
F6
F6
0E
FC
EC
E1
E9
05
D0
0B
22
0F
E1
01
0A
11
EF
D9
EF
39
23
C9
DB
40
0D
E2
1B
30
FA
FA
2C
1F
0C
14
F3
EC
CB
1A
68
C8
E4
11
0E
CD
E1
14
26
E1
05
06
F3
F1
16
E4
B9
05
04
ED
01
E7
0F
26
FA
18
A8
F5
EF
F6
4C
22
10
37
03
F6
F3
10
0B
04
FD
0C
F9
37
01
FB
EC
DC
19
1E
DD
F9
07
1A
D1
08
09
00
FC
E0
F0
E9
15
1F
DC
93
04
F0
DF
EC
07
03
EF
E7
FE
E7
D3
21
D5
D9
0A
E4
0F
EE
F3
25
11
31
F0
C1
CA
93
37
27
19
08
C6
AD
F5
04
EC
C0
00
ED
0A
E1
18
15
C4
10
E4
35
34
E2
14
C5
FE
0D
D4
01
1D
F1
E6
D3
F5
15
24
16
C0
C1
25
FB
0B
D9
FD
1A
0A
81
1D
09
31
EC
F0
F7
05
AB
BF
EE
F7
E1
E6
ED
EF
1C
EE
E3
FF
12
B3
EB
CC
EE
F4
F9
01
18
06
10
38
2F
CF
30
24
07
ED
04
C6
D9
F9
0D
0D
02
F3
12
29
26
F8
EE
EF
D9
F6
35
81
36
17
29
DB
16
E8
FC
F6
F9
EF
2A
FA
0B
F3
07
02
F1
EF
F5
04
FB
06
F0
F1
F9
0D
06
F6
12
02
13
37
EB
39
F7
EC
02
05
F1
16
EE
DC
E3
FD
0C
04
EE
E1
E0
14
08
E5
ED
01
17
12
FD
D3
ED
D9
EF
36
6A
81
E2
E6
EF
F0
A7
06
DB
FE
0A
06
EB
12
27
CF
9B
CF
C0
27
0E
05
14
1D
17
18
05
0A
3E
23
B9
F3
DC
C8
0E
1D
30
FE
22
1A
2B
18
1C
EA
28
0F
FC
17
33
CD
DF
13
61
3A
E4
F1
00
1E
12
C9
10
38
00
20
18
FD
34
E1
00
BC
E8
E6
09
FD
01
17
01
1C
1D
EE
2A
5D
12
F8
1C
07
11
02
EC
51
D5
E7
FE
27
E1
EB
0D
42
27
FB
1D
1E
C9
FF
0F
F5
06
E5
1B
E7
10
16
A6
D7
07
15
E9
E0
F7
2A
23
13
04
1A
E2
0E
1C
1D
CE
30
0B
D7
F2
FE
2F
06
F0
06
23
ED
EC
06
27
E2
35
12
17
12
23
11
E7
22
14
EC
E0
27
2F
F4
E3
23
C6
ED
EA
1B
14
0C
1C
2F
03
E8
2B
0C
DD
FB
20
0C
1C
DC
C3
01
06
04
DD
36
1B
28
40
DE
ED
C1
34
DC
20
BF
D1
EE
2B
CF
26
D4
1D
E8
4E
C6
26
CD
34
F9
0C
09
07
07
EC
02
12
10
F2
16
0B
08
07
08
04
28
DE
38
1E
0F
E9
2A
13
DA
D1
29
E0
EC
FF
F0
DD
EC
2F
CF
3E
D1
40
F4
47
E0
FC
F2
FC
C7
DF
E0
0B
DE
0C
02
D1
F1
0B
D4
D4
FA
2A
11
E6
FB
05
29
F3
08
25
E8
F8
0D
33
F7
27
1C
3E
F8
06
5D
45
E9
F9
19
19
06
E4
FD
F2
1D
C5
1B
15
FC
07
E4
0B
C7
F2
AD
48
18
E3
BF
5E
21
DC
DD
22
10
E9
F0
2A
FB
F7
09
F7
B5
D0
0A
18
FF
07
E4
0F
EE
0A
FD
25
F0
FF
39
17
47
01
39
42
E3
0A
1A
14
03
EF
A5
EE
11
18
E6
E3
D5
07
0B
EC
CD
BE
15
1A
E7
EE
DD
0B
CB
E2
DF
0A
2B
FF
2B
28
D9
D8
30
75
FA
D0
18
E7
0A
10
09
19
52
7F
FE
FE
0B
15
08
22
0A
29
28
01
E8
2D
09
21
FE
26
2B
0D
D4
35
17
03
E1
13
3C
EB
F9
2C
1A
04
1A
D5
3A
20
08
E7
46
2B
F7
24
1F
18
16
40
26
09
D7
BA
DA
1B
FD
CB
36
02
04
E2
30
0C
24
C4
00
D7
2E
02
FA
F1
15
F1
B0
FD
27
1C
EA
1F
A5
20
14
F6
F0
F7
14
FF
F5
11
F3
05
07
13
F5
07
0A
F8
FD
1F
EE
19
14
13
D3
FC
31
DA
17
24
3E
F9
38
2F
0F
07
D9
15
2E
1A
2C
E5
1B
46
F8
03
26
4F
1B
5C
3D
EE
03
B7
25
FA
BE
23
26
12
20
2C
E0
FA
D9
F6
A6
CC
D7
FB
FB
06
21
FC
19
E7
18
B5
C9
2D
D3
C7
D5
DA
2F
C6
E5
08
4B
D7
E6
E1
F7
A4
11
D1
0E
97
23
93
2D
A7
33
F5
29
CD
F2
10
F4
13
CB
3B
D3
03
E3
0D
E4
E1
12
FA
DA
03
24
F4
F3
D6
18
FB
12
17
BF
3B
D7
5B
F8
0E
BF
43
AE
EB
13
1B
9B
15
FE
FA
C7
1F
37
D6
E0
15
07
0B
1B
17
D9
00
28
CF
9F
28
17
02
03
CB
03
25
0E
40
FA
1F
FE
07
C6
0A
0F
05
09
FD
98
2A
F2
13
1E
1A
FB
19
0B
F0
F4
14
12
00
D0
D6
DF
29
A8
D7
ED
1B
01
DC
D2
10
0A
FB
F0
C9
3E
1F
10
EB
E0
0B
3D
07
1F
F3
4C
0D
81
FC
0B
DC
09
34
EA
EB
E6
23
03
04
EC
3B
31
29
C1
D6
FE
9F
F3
1E
01
E3
F8
37
09
04
FD
1D
FC
FB
0D
FB
C9
E9
FD
0B
12
F5
F9
FB
0B
06
F0
0C
FD
FF
F0
FD
FE
04
E3
05
27
E9
DC
F5
28
15
CA
0E
24
05
E4
0B
0B
2C
1A
D3
04
F8
0A
FA
FB
0C
FD
08
1C
2C
0F
1A
10
0A
C7
0B
35
FE
E1
FE
1D
B8
05
E4
04
F0
06
E5
C2
F1
FB
E1
04
F6
22
EA
F2
0F
D4
0D
0C
25
DB
26
C6
D6
2B
29
DE
39
0B
17
CB
26
E8
16
E5
F3
FE
11
F8
B2
FB
FA
FD
FC
EA
1A
10
04
F0
32
1A
0A
D0
04
0A
03
13
FE
E8
D6
FD
06
EC
ED
E6
10
02
D7
25
F8
0C
1B
1F
D7
2F
17
11
F2
F3
1F
13
16
3F
1C
81
AE
27
42
05
E2
EB
1B
E9
FF
01
E9
FF
EC
0A
E2
0E
C4
C7
F4
F4
20
0E
E0
0F
FE
01
F1
34
32
3E
2B
FF
D0
EC
18
07
F8
2B
05
0B
CC
16
14
0B
DD
26
06
F3
DE
FD
3D
D5
F3
C7
D7
D6
FB
F1
BF
E4
FC
F0
10
F0
E7
08
EF
B8
15
D9
F5
08
19
01
02
2B
FC
1A
0A
05
D8
E8
19
E2
FD
E1
EC
04
06
EE
EA
F9
F9
FA
ED
F6
F8
0F
ED
0E
07
CB
2C
17
05
EF
E6
F0
F4
E5
11
F9
28
FA
0F
FD
07
F9
FD
F2
03
F1
FA
0A
05
05
FF
F5
F7
01
04
06
F5
D1
DA
FE
02
E6
E5
0D
F7
E6
0E
1A
F9
11
0D
05
01
F8
C5
0C
04
E0
EA
F3
37
ED
EE
F6
25
FD
0C
35
3D
81
1E
0B
19
AA
CE
00
FA
F9
04
E4
00
FD
33
E7
D1
0D
E9
F3
FF
14
24
12
02
13
24
00
28
04
04
FA
B4
01
19
FC
D6
DD
02
D5
CA
F4
DE
EC
D0
E7
E6
0C
16
E1
0A
25
1E
29
03
F5
CE
03
04
D5
E0
F3
F7
10
08
10
0B
F4
18
F8
F9
F6
28
1C
0B
13
F9
17
18
FB
0D
D7
FD
D7
23
DE
F5
01
31
EE
D1
F6
21
E4
DE
F3
17
30
33
0C
35
40
EF
07
26
17
F0
07
02
2C
DA
26
C9
DC
2E
1C
15
1E
18
14
0B
0E
19
F4
07
FA
02
1A
F6
44
F1
08
0C
FF
29
18
18
03
03
FE
FC
02
06
F5
2E
0A
2B
01
2C
1B
34
EB
17
06
2A
FA
38
1B
28
26
E9
F5
F1
25
09
1E
28
07
FF
30
4E
0F
25
31
09
1B
F8
EB
C1
0A
F7
F3
CC
10
D9
BF
D2
21
EE
00
EA
35
F8
F8
01
A7
EC
07
12
81
FD
36
0D
F4
16
F5
40
FE
FD
F2
EF
0B
11
F6
0C
10
08
FA
09
F1
0E
F7
F3
08
17
FB
0E
3F
2B
D1
FD
21
DB
0A
E6
08
19
04
DF
2A
0F
0D
DA
13
16
43
07
0F
19
19
FB
CA
07
09
03
F0
18
F2
1E
EC
F5
09
20
FF
2F
2E
10
EA
ED
17
27
E6
0B
05
EB
3B
20
F6
F3
35
0D
D1
E3
34
23
B1
E9
E5
FF
38
9D
E6
E2
14
CC
CB
AF
CE
89
93
C7
E7
A4
0F
1E
FB
E6
0C
0E
24
CB
0C
E0
10
B6
E1
15
0C
D4
1C
F0
13
2F
E3
E3
FF
3E
0D
07
02
1E
08
FD
E6
03
D2
46
3F
0C
1F
27
28
62
E4
E6
0A
21
DC
EE
0B
02
0B
03
F9
29
D6
12
F9
FD
E3
FE
E3
26
E9
E1
B5
1D
01
D7
EC
07
F8
12
17
5E
41
2E
15
F2
0A
15
12
ED
CE
FC
15
51
FF
23
09
FD
07
11
F1
17
F4
17
12
1C
16
0C
08
42
1B
E4
01
1A
EA
DA
DD
F3
05
F3
9B
A7
0A
EF
D3
E3
DB
1B
2D
0E
3B
1D
0F
26
D1
0C
03
EE
E1
1D
97
07
04
91
91
F3
C3
8A
C4
12
0A
DF
8F
D0
15
10
CC
35
CB
04
14
A6
1D
A6
9C
A9
C2
04
28
0D
02
DC
4B
CC
4B
B3
23
AF
05
0A
28
C2
17
FC
D8
1A
87
9F
99
2A
C6
1A
EA
94
E9
2A
C1
97
E4
DF
AC
12
C4
39
EE
B2
B8
27
D5
0D
B3
FE
E8
17
F9
26
CB
38
E4
1B
A6
EB
8F
CB
D2
DE
CE
F8
DE
13
B3
1B
92
82
FA
1A
07
D0
00
AD
A2
A5
CC
86
F8
23
10
E4
AD
C1
DE
3B
B4
05
F9
25
09
F9
AD
E4
E9
B3
0D
20
4D
0E
CA
AC
81
17
FE
DB
E7
F1
EE
1D
07
A7
B8
AB
97
8F
CE
C9
BA
F2
DD
B0
1F
F3
98
22
1E
E6
8D
A7
E9
8E
B8
E1
F0
C8
C1
B3
0D
B1
02
2E
18
4B
D2
F3
4A
E9
9C
9B
09
C2
06
B8
14
19
AB
02
A1
82
E1
F3
99
E7
0A
26
CE
91
B8
BA
F3
F1
E9
FA
AA
97
C1
E3
EE
AC
FA
28
04
C6
19
EA
B5
AD
C4
8F
A9
C4
82
9D
1D
9F
DC
02
0A
D0
D5
16
02
C6
CD
9A
91
1F
AF
07
1A
E3
A7
9E
E0
94
FB
3D
A5
C9
8D
AC
F7
F6
06
1C
0D
BF
50
21
B3
22
B0
BD
28
10
05
E6
97
2C
46
E9
21
0A
EA
0B
83
3F
AF
44
FA
CA
F4
09
F2
A9
E5
F5
B5
B8
CA
3C
F9
22
3B
EA
FA
EC
30
BA
22
22
1D
43
14
30
C2
B7
CC
03
2B
BB
C1
E0
E1
A9
A1
D7
0F
1B
3D
F9
B6
DF
81
C1
85
AE
9B
88
8D
03
93
DA
D3
B2
17
A6
15
D8
AF
E9
D4
E6
AA
1F
C9
03
9D
D7
9B
C8
E0
F7
F5
05
4C
21
B7
E1
DB
F1
8F
06
E6
DD
12
27
F6
B1
EE
FD
B5
ED
F8
A9
0E
C3
FB
06
F4
0D
DD
22
B3
F4
3D
BA
DC
0A
C3
6B
2F
C3
EF
3D
23
BB
1C
A7
FA
E1
1D
F3
C4
C3
2D
D3
F0
E1
FC
4E
25
09
2F
B7
CB
0A
B0
DA
59
3A
B8
FF
E7
46
17
E3
22
15
F8
2B
CB
27
EE
B8
FE
C9
28
AE
45
08
D3
07
DF
B3
22
44
E2
EB
A5
08
09
60
30
3A
04
CA
D6
A9
C6
BA
FB
13
D9
E9
E4
E0
01
1D
05
B3
13
D7
E8
22
0C
B0
08
C6
F8
C1
FB
E1
FF
F0
FB
27
F2
18
F2
D6
BF
E2
DB
F3
17
C9
4F
EC
20
0E
0F
0D
D2
04
A9
1C
0F
15
C7
C9
B1
9F
0C
E9
F3
DC
07
E8
01
D2
FE
02
15
E8
EF
1C
24
E0
00
CE
F9
D2
1C
E6
27
25
0F
04
26
18
22
FD
15
F8
F8
0C
09
F4
F9
FB
0C
08
FF
00
08
F4
F2
07
F4
05
17
25
F9
F7
FA
25
DE
E9
09
2D
F9
01
F5
3A
11
EF
F4
09
FF
FA
F6
FE
F7
BA
1B
FE
00
F9
FD
19
13
20
02
D0
2B
E0
18
E4
15
20
03
13
0B
01
36
01
F8
FA
00
09
EC
E9
1F
EA
F9
FF
F1
DE
0F
02
05
F8
F3
ED
FF
F3
E3
E5
08
EB
06
E6
F8
F5
27
FE
DC
E5
13
C7
CF
C0
F2
D9
DD
E8
ED
F1
FD
12
16
03
05
2D
24
0D
F6
04
09
33
EA
F0
07
0D
FF
05
04
E7
12
0E
F5
05
16
FB
4A
35
2C
CF
39
55
02
E1
1A
57
16
DA
FC
19
E9
E5
F0
1E
02
D1
13
42
F0
03
F8
FA
F8
07
F8
EA
0E
05
F1
28
E4
C6
18
13
3A
FF
0D
26
18
FF
17
1B
EF
1A
EC
7F
B8
20
FF
17
E4
04
FF
46
E8
FB
FF
3E
27
08
18
17
2A
03
07
07
0E
00
EE
FC
06
05
F7
FE
D8
FE
DA
DD
E0
0A
E1
0E
06
FB
19
FD
16
EE
17
01
F7
0D
07
04
17
F3
16
20
0F
00
FE
39
08
E7
E1
1C
F5
13
C5
23
F6
F9
2A
09
0B
0E
F7
06
22
F5
D4
26
00
F6
08
03
01
FD
F7
FB
04
FD
0B
07
FA
F9
F9
03
1E
F5
F5
F4
1E
E3
F6
00
01
E4
D8
D8
CC
C0
EC
E1
F0
23
08
FB
01
F7
F7
07
14
D3
D2
03
F6
E3
C0
0A
DF
F7
CE
25
D1
1B
0D
0D
FE
F9
18
FA
05
09
FD
F2
FE
13
16
18
2A
08
F3
09
1A
17
F5
0B
1A
16
EC
2B
E4
08
16
DF
19
04
0E
EE
0B
01
F9
14
F4
18
CE
15
EE
22
05
E7
CB
07
F4
F4
EB
1F
F0
03
09
40
E8
0F
21
25
2B
2E
F3
22
F4
EE
F1
E2
ED
E6
E6
FA
FE
04
38
2A
E4
02
04
FF
C8
BB
C6
08
2A
89
C6
F8
35
E6
0D
FF
07
0C
05
F9
E1
F2
F6
EE
E7
F8
EE
EC
E4
2B
F5
ED
10
FF
CF
2F
AF
BD
DA
03
F8
E3
11
04
FC
17
E0
04
2A
7F
F6
09
C7
09
E9
0A
F7
EE
09
19
FA
EA
0A
ED
E5
F8
E9
E8
F7
FA
FA
FC
0E
EB
27
E1
1D
2F
DE
F6
13
18
FB
0E
DE
EC
28
EF
DF
01
2A
E5
D7
3C
05
0B
02
EA
F7
D7
FD
D4
25
E0
DC
FE
24
E2
EE
3E
46
46
F0
07
D7
22
0B
E9
BF
0B
08
EB
EF
ED
E2
29
01
FE
F2
07
FC
0C
FD
F5
07
FD
04
F3
FC
F4
0B
F2
FA
F0
FE
09
27
D1
FF
11
4D
E6
01
FE
43
D6
DE
B5
02
02
01
E9
0C
16
19
06
00
0E
14
1D
F1
FD
18
E1
11
02
F7
FA
C1
3C
1E
DB
D0
26
15
18
FA
16
07
1D
C8
09
00
0C
20
F9
F9
F1
15
13
E6
F2
37
1E
EB
18
03
0E
11
CA
10
16
03
08
08
F5
F3
23
F2
DD
F4
3D
3F
16
07
E1
26
2E
0D
03
D4
14
E6
FB
81
05
CE
00
1A
23
0B
39
15
0E
04
1F
09
E8
EE
2A
DB
01
FA
0E
D7
25
D6
E9
F1
06
CC
C3
F8
11
20
9A
E1
F6
34
EB
23
16
0B
36
F7
19
FD
D1
03
FE
D3
0A
F9
0D
C2
45
E8
E9
22
3C
E8
1D
D5
FE
CE
FA
F3
EB
F3
15
12
FD
02
05
08
3D
E6
0A
EA
06
F2
FD
FA
C1
00
15
18
FE
0C
11
20
37
0B
00
18
1A
2E
06
10
06
42
28
20
10
15
0E
12
E6
37
30
14
0C
1B
2E
F4
1C
C5
1C
D4
20
B7
F8
A2
A9
1C
36
20
29
FC
A8
28
10
00
F0
DC
1C
EE
93
0A
9D
4B
07
E2
25
15
FF
89
09
0D
00
21
9C
A9
CA
48
CE
0B
FD
CB
EE
D9
00
A9
17
28
A9
DB
B1
09
B5
4C
39
D5
40
E4
07
C0
E9
CB
DB
F7
FE
C6
07
A1
A9
EB
CC
09
E0
F4
F2
E8
BE
48
C3
ED
3E
12
CB
23
25
B9
B0
F9
23
15
10
16
D0
9C
95
2F
AB
07
BD
26
AB
34
CB
A0
21
A6
09
97
29
2F
0B
20
98
0E
20
D2
E4
FA
F8
A1
F8
33
B1
A4
C6
F9
18
CC
FA
31
43
DF
3D
E6
00
2A
EB
FB
50
CB
CB
46
B3
0D
B0
E8
A2
E4
E5
2B
B3
2E
FA
F7
02
CF
BB
1B
D3
30
F1
23
AE
92
BB
FB
9D
C2
25
9B
D2
01
F4
D6
E5
32
35
F6
01
FB
24
03
2A
B3
03
14
12
4E
0E
25
B6
9D
93
05
82
B9
9D
97
32
22
19
B1
21
45
9E
D1
49
28
10
0E
3A
81
20
10
16
87
37
FA
F5
C6
11
BB
AF
04
B0
AA
EB
88
A2
F6
A6
B8
C0
2A
CA
EF
32
46
CF
D9
A9
BE
A0
EF
BE
B1
37
F0
BD
AA
25
B7
F0
EA
C5
27
2E
F6
C2
B0
E3
06
FD
8F
E3
41
AB
8C
44
BF
10
A3
4C
3C
1A
F4
F9
D9
FC
27
E1
2F
B2
D0
C3
BC
16
03
16
A5
12
C0
48
CB
DD
C0
37
1C
E1
21
35
03
0A
39
E4
13
F2
DB
BE
08
C6
C9
4A
BF
34
A0
BD
8D
1F
22
BE
EF
15
2D
BB
D8
04
06
4F
A9
15
9B
EE
22
24
C0
A8
B4
DA
B7
84
44
1A
E4
1D
E8
BB
2D
41
9F
32
9D
A3
20
E6
CB
D2
31
A4
B2
86
C6
10
D4
03
E7
AC
3A
87
40
30
FF
FA
B2
9D
1F
33
BB
AB
06
29
3A
F6
9B
81
B8
F6
AF
23
8D
1C
F8
FE
44
F8
21
16
AF
47
88
41
07
45
4C
DD
08
F4
96
A4
0E
26
CB
22
4C
F5
E9
EE
38
9B
50
4F
D7
F4
54
08
29
C7
40
F9
E6
05
40
0D
FF
39
CA
CF
32
42
AA
E0
BC
5B
23
C9
A5
97
FB
CC
C2
F7
21
91
D1
15
9E
A7
C2
F2
F6
B7
D3
BA
9A
28
45
D6
18
37
29
D7
2B
11
88
36
F6
CD
FF
8D
CD
99
AF
BE
E4
DE
48
42
8E
BD
C8
FD
D0
D1
E2
BD
46
FA
B6
3A
FC
93
9A
24
B9
B5
35
D7
0B
C1
4B
F3
1F
03
A6
3E
9D
C5
00
DC
CC
0F
E7
A5
E5
B2
0B
D8
0D
B5
F7
94
1C
14
FB
0A
1C
3D
4D
D3
27
FB
99
35
9B
2F
06
4B
52
4B
42
53
02
31
F0
50
24
C5
39
FE
CA
27
3F
F1
28
25
04
D5
EF
81
2A
D2
0D
0E
AD
85
8D
1D
A9
D5
FC
D1
FD
BF
11
92
BA
ED
20
BF
1B
98
CF
38
82
C7
09
DA
CB
03
C6
DD
2E
C8
4C
AB
FF
25
C7
DF
0F
4D
EA
04
FF
97
1A
9F
FF
D2
DF
02
EC
2C
41
C2
3F
EF
C7
10
2A
F8
FC
F3
01
D9
1D
95
E2
DB
CE
1D
88
AA
FD
A4
06
C7
A7
DB
B7
22
4A
39
FC
CD
AD
E3
D4
D2
B2
45
0F
37
B1
CE
B0
21
A2
EB
2B
CC
4E
B5
AD
C1
A2
22
F7
19
D8
33
AE
99
D3
99
0B
37
EC
42
37
14
A3
AF
D1
F8
37
DA
14
30
95
36
FA
BE
FA
01
36
35
CA
36
3F
22
31
34
B2
2D
07
40
1B
2A
97
F7
16
DB
C3
E8
8A
C0
30
07
8C
C5
A4
E2
0C
24
02
9E
DD
03
C2
2A
9A
10
9E
CE
B3
46
DE
EB
FA
1B
DC
E4
C2
BA
9E
2A
24
E0
10
BD
45
C5
00
42
03
E1
28
1C
BB
C9
ED
C2
E8
FB
11
0F
14
0B
2E
00
B5
32
55
EE
09
EB
E0
07
6B
F9
0B
CC
ED
CA
DA
E7
0D
11
1C
01
D4
31
02
02
0D
0D
06
FD
0B
14
0C
11
FE
FA
12
F1
FE
FA
03
07
C1
18
0B
09
F6
FD
1C
1A
0E
C7
B9
0B
21
A9
0A
E6
08
E6
F7
F8
14
E4
06
F6
05
30
F6
D8
FB
0B
EF
F8
43
AC
11
D6
2E
BE
0A
DB
32
02
17
DE
08
00
20
E5
CB
EB
02
12
13
08
EF
09
F8
F6
ED
44
E5
1D
CC
32
CF
FA
EF
45
0F
F8
1A
1A
96
33
EC
CD
AF
2F
F7
D1
12
D7
24
1C
07
D7
4A
0B
0B
0F
27
18
E9
FF
C5
10
28
FF
E0
C4
D6
21
FD
F9
00
10
08
FF
1F
2E
C0
DF
11
D7
AE
DD
BF
D3
ED
28
54
81
22
28
2F
CA
E5
1E
FB
37
D3
FD
D9
29
E0
06
D9
24
FF
C9
CC
66
F8
2A
01
B3
CA
91
FB
F6
23
F9
16
EF
FF
0C
12
05
1A
FB
87
AE
B5
F8
DA
06
DA
FA
05
D5
FE
0C
36
DA
25
DB
06
1E
0A
D0
07
13
05
F8
13
E5
1F
F5
EF
EF
0A
E3
00
E8
1C
E4
10
E1
17
1C
D8
DE
0D
ED
AC
CB
DA
10
EC
FD
D2
00
F5
30
08
29
0C
48
FA
58
EB
16
02
17
26
9D
C5
27
20
3C
FE
1B
FB
51
DB
0B
EE
CA
02
EF
0E
F9
17
FE
17
F7
0E
EF
05
15
0A
0D
19
FE
2B
EC
2E
19
38
0D
41
0C
F8
FA
33
06
D2
B3
10
E3
F1
1F
10
3A
0E
2E
01
29
F0
3F
53
29
BB
24
00
F7
20
FF
30
C7
BE
0B
17
BD
01
F2
05
12
1C
FA
17
08
F0
D1
F9
08
28
0B
E7
12
31
1B
04
4A
52
45
52
2F
1F
3C
B8
12
15
48
E3
32
13
3F
0A
32
CB
31
08
C5
ED
12
DA
FD
06
0F
FC
FB
E1
0C
FE
EB
D8
D2
12
AD
13
43
D8
6E
D7
1F
0C
24
C0
EB
D4
E3
DE
F8
E9
17
E0
04
36
F3
30
22
A2
8F
24
07
19
81
02
E5
2A
B7
E4
FF
EA
2D
FC
EA
E4
CF
D4
0D
F3
E3
E9
15
91
6B
27
1B
4F
0B
3E
EA
A2
88
13
FE
02
AA
36
04
15
F7
18
02
2B
56
18
C6
FB
06
03
DD
FC
F8
1C
EC
FE
48
11
19
25
C7
DF
F0
FD
D6
2B
26
10
01
21
2F
0B
EE
C4
C9
02
EA
2A
0E
EE
1B
31
31
F7
2B
20
05
0E
DD
E2
14
04
F7
1D
ED
07
F8
15
07
0B
21
FF
EC
F5
30
2A
1E
D8
F3
F9
FF
1A
26
F1
E9
0D
14
F8
F1
EA
03
02
05
07
FC
04
F9
08
FC
0C
FC
04
0A
F8
03
07
00
1A
F7
04
05
40
01
F7
20
0E
1B
FA
07
FC
0C
ED
DE
EA
11
02
FE
16
18
FA
06
03
14
FC
0C
F8
FE
F1
E9
27
EF
08
08
EF
F7
13
EB
04
E6
06
F5
08
14
0B
13
C5
E8
09
FE
2F
03
FD
08
1C
1D
F3
EE
7F
31
19
0A
FF
2A
FA
F2
04
FE
04
07
02
13
01
FA
05
F0
F3
FB
32
22
FD
F4
09
08
10
FB
08
ED
F7
06
14
16
EE
07
2C
05
BF
14
F7
16
FE
EF
D5
F7
FE
EA
DF
01
05
03
19
F9
EA
18
2B
37
C0
09
F2
15
0A
D3
FB
24
16
E7
EE
FE
F3
34
FD
0B
E5
BF
FB
11
F5
F2
F4
E9
FA
3D
24
CA
21
45
1E
F3
CC
DA
E1
17
DE
D2
1B
1F
11
F0
E2
E3
18
4D
02
03
F4
21
02
07
F2
F2
15
0C
F1
F5
0C
1E
06
21
11
1C
F5
FD
2C
0C
04
10
34
07
F8
20
EB
F0
0E
F8
1D
1E
05
EF
0D
16
05
21
04
26
0C
16
EF
FD
F5
FC
F3
0C
F1
F5
FA
F7
02
EF
EF
4A
DD
D9
20
E3
F8
E0
15
1F
E3
15
00
F0
FD
32
EE
F8
03
F5
F7
F9
09
F1
F8
04
04
F2
07
01
0D
0F
10
FB
FA
FA
EE
26
15
F9
01
29
FF
EC
FE
19
08
F7
E2
FB
0A
04
28
03
18
19
24
F4
08
DD
04
02
25
EC
DE
11
17
D2
23
14
06
03
E8
02
08
F7
FC
FF
F0
24
1A
FD
0A
09
EF
D8
FA
06
17
F7
05
05
22
E1
FB
E3
ED
D1
0B
AF
14
B0
F5
18
0A
F5
15
03
08
F7
10
12
FD
22
10
15
0A
F4
DA
04
FE
F3
15
F2
E2
E5
16
06
EE
CF
15
F4
13
E1
DE
32
FF
F7
0F
29
F8
FA
07
FC
E7
E9
06
27
BA
F4
F8
B9
26
0F
F2
D9
48
FB
07
81
32
DF
F6
B6
ED
FE
08
16
0D
F7
3D
E6
FC
F6
03
04
F1
F7
BE
E1
11
F5
08
18
11
F1
06
EA
01
EB
01
EB
FA
F8
12
FD
EB
E8
EE
24
FA
00
23
FC
F5
0F
11
F3
E3
E6
15
25
FB
23
34
25
F1
0A
04
0F
FC
19
F2
14
14
26
F1
D6
06
0B
E3
DC
07
F5
1E
1E
F3
0D
1D
37
E5
0F
0D
E4
22
24
0F
01
06
E9
F2
F0
12
09
1E
13
F9
D9
1F
F3
F6
A3
00
EC
31
FF
2A
2C
41
10
FC
F1
33
E5
19
17
EE
F4
0F
09
FD
F1
0F
F6
F1
10
0A
F7
F7
09
04
12
01
FB
13
22
DF
D6
00
1A
F7
09
0D
4F
EF
17
14
4B
CD
ED
02
F9
EF
DC
D6
D3
1C
F5
EC
48
30
FF
1F
47
F7
E1
24
B9
05
14
1C
DC
F3
EF
0D
00
17
01
04
02
FF
15
17
03
E8
E5
EC
08
DD
ED
0F
D4
28
2A
11
19
F7
05
F7
D6
03
0D
E4
EE
13
1E
0A
FF
2C
F7
04
B0
CA
D7
E7
BE
BD
0A
02
07
F6
4C
1E
14
2D
4D
0E
08
D0
F7
1A
7F
14
27
00
E5
FB
11
21
E9
FA
0F
12
1A
D9
3D
F9
5C
AF
E9
F9
14
04
43
48
DD
B7
1A
17
EF
D9
F7
DD
2D
E2
D8
F4
07
03
CB
13
FA
01
B9
E8
0E
F9
04
09
3B
E1
33
0C
FA
F7
18
14
1D
11
03
EA
F6
F1
38
E4
75
C8
1E
05
12
F2
F9
FA
F1
ED
11
F2
03
15
0E
18
FD
2D
0A
02
E4
00
FB
08
F8
13
F4
1E
1E
D6
10
18
D6
11
D7
EF
25
05
E7
F0
20
28
0A
1B
4B
DB
EC
FB
D3
D4
F5
E2
E5
B6
96
88
F7
FE
D8
C3
9B
DB
F8
B9
99
E6
03
F9
B0
CB
02
F6
DD
C3
DA
F6
D3
DA
F7
E7
DD
EB
FA
17
FD
FA
09
21
F5
10
13
22
0F
D9
01
D1
CE
AC
F5
05
D5
E0
BF
D4
CC
06
07
15
00
CF
A0
F2
AE
A3
08
B2
C6
BD
E6
E7
81
BE
13
14
B5
2C
BA
FC
EA
25
FA
40
22
F4
E8
17
E4
EA
A0
C1
D4
DA
C5
DE
03
90
AD
F1
C5
C7
B4
B0
90
22
CF
F2
E2
D6
3F
F3
EF
E0
2E
45
CE
C1
0D
2B
EF
08
2F
E8
B1
27
F2
07
9A
05
03
D0
B5
F3
27
03
8D
38
D8
11
8B
DF
00
BA
08
C2
00
F0
F1
E4
0A
FA
F6
D5
05
20
1B
CC
2A
2F
3D
3C
F9
54
E8
5E
2B
6E
57
36
2E
0A
0E
C9
E4
2D
36
C6
14
25
40
B0
EF
DF
3A
EE
D1
89
6D
29
B2
C6
DE
30
39
34
CD
36
32
07
06
1C
1A
FF
DD
2B
E8
52
0C
FB
09
1C
FE
3F
F9
09
1B
EB
E0
FB
D4
D5
FB
F0
33
D8
E0
ED
EA
BC
AF
AB
E5
AE
9A
86
B3
F6
E0
DA
97
1E
DF
EB
C8
C5
E1
B3
F1
19
12
D6
D8
06
C7
D7
04
FA
03
26
1E
F3
ED
0D
0B
2C
10
2B
B9
E4
FC
FF
76
25
05
DD
EA
FB
00
DC
C6
04
56
D2
D1
0A
FC
FC
FB
F2
F3
FB
F1
F9
F7
FE
F7
FE
0D
FB
09
BE
00
E7
25
C4
E0
E7
F3
D2
11
0A
12
E1
F7
45
1B
04
F5
EA
DD
E3
F1
16
EF
F0
27
0A
F5
D7
0D
1E
31
22
64
E8
D7
16
07
EA
E6
01
F2
CA
FE
EF
03
D8
16
39
E7
C9
E8
03
2F
07
26
FF
0C
28
2A
E2
4B
1D
09
E2
A4
F5
E3
F6
F6
FB
F5
0E
E4
E8
0D
F8
CC
E4
F3
D5
ED
12
DA
19
4C
13
EE
11
37
EA
00
E0
2F
0B
0C
E4
34
42
01
D3
BD
CC
FD
FE
F8
EB
F7
06
E2
FE
FB
1A
4C
27
44
D3
1F
E3
1A
0A
81
06
E2
30
34
A1
B1
09
F9
EB
ED
01
CD
14
3B
FA
D6
EE
16
F4
F6
F2
EA
26
42
DB
C0
F2
F3
2B
E5
17
11
26
19
17
0D
02
F0
64
14
00
F7
DB
2D
05
FC
D8
E5
14
26
CD
B1
1A
07
F3
F1
C2
3E
34
04
11
20
0E
06
FC
14
0A
4B
0B
F4
37
F2
53
F4
06
17
3D
0E
F6
1C
F2
04
27
2D
29
C5
FB
FD
0F
FF
12
0F
0F
05
FA
0A
01
F4
BA
09
1A
09
FE
F6
F3
F1
EA
F7
03
40
12
06
2D
09
FC
0E
0A
DE
0D
0F
F8
F0
0A
07
F5
0E
F3
0B
0D
0D
F4
FD
0F
10
F7
02
22
EC
EC
29
19
DF
01
F4
03
01
14
02
E0
0D
F0
0D
F9
2C
06
1C
37
21
EE
02
EB
B7
F1
FC
05
D9
D8
E2
F1
24
EE
05
D8
21
FB
47
F6
E3
F0
15
12
E7
1A
0D
05
0B
F1
11
15
F7
F2
F9
2E
29
EB
E2
15
01
48
FB
4E
22
0A
D8
1D
05
F1
DC
14
CC
E8
27
FB
F5
26
38
EF
08
F5
E4
FD
1A
04
DC
D9
E6
2A
D4
01
00
F6
CF
98
B8
07
E0
E6
E0
26
FF
F3
FA
13
05
01
0B
ED
A2
A0
81
41
E4
37
0E
F6
EC
E2
56
E4
F3
F3
54
F2
D0
09
9D
F5
ED
36
19
01
01
20
19
03
2A
23
F0
F1
ED
EC
A4
26
F9
CB
F8
04
EC
EB
10
F1
D8
FB
19
E2
FC
2B
AE
29
E7
E9
C5
00
05
F8
25
12
0E
FA
17
00
FC
0C
E2
E9
0E
FC
21
F6
EE
0A
0F
04
E2
D6
21
FB
09
C6
1F
E6
07
0C
10
FA
EA
02
F9
E6
FD
0A
01
DC
2A
FE
0A
97
EC
CA
11
CF
26
0A
DB
CB
DB
FB
16
1D
38
FB
26
DF
49
BD
0B
0C
FC
C7
CB
4D
E6
BD
FB
08
FF
F6
0A
0B
15
FF
F4
02
12
F1
FB
0C
EE
14
F3
DD
12
EA
EC
C6
E6
F8
F9
0B
FB
41
2C
F2
D7
03
58
D9
BD
FC
F1
12
03
D9
F5
12
19
13
0C
6A
1A
FA
01
57
22
02
2D
E8
1C
E9
FB
1F
CF
E7
E5
0D
D5
C4
C9
DE
EE
46
CF
08
A1
F7
AB
B9
D5
0B
F0
C0
DC
DA
B4
F5
BD
20
2F
FC
F2
CF
31
04
17
0F
FA
40
26
3D
2E
46
E8
E5
0E
23
C2
54
03
FC
F5
24
EB
9E
B0
EC
0E
F6
E1
DC
3B
1D
DC
00
11
EE
F2
F7
09
16
F0
E2
09
E5
ED
D5
37
DD
E4
FC
28
DC
F4
0B
76
ED
C2
2D
48
01
E1
19
E4
DB
14
33
08
39
EE
25
EA
37
C3
BB
A0
37
E9
1C
22
33
14
58
14
DC
BF
00
22
DE
EC
DA
ED
2F
FE
7F
AE
1B
F0
4A
C0
F1
D1
34
10
13
08
48
16
F5
15
09
2C
F7
3B
02
FE
FD
FD
EA
0C
EE
E8
09
C0
07
22
08
D9
0C
08
1B
F1
0A
1C
45
CE
AC
0C
F3
DB
15
07
0F
E9
0E
12
0C
0E
EA
F0
28
F6
CE
BA
02
E1
E4
D9
04
09
20
CD
00
F7
FA
F5
E1
FD
DA
FB
0A
F6
09
F4
F9
FA
09
07
F1
F1
F1
F1
00
FB
F1
FD
07
F5
15
28
EF
22
F2
2E
04
04
F8
03
EA
D7
1F
05
D6
08
0F
1D
0F
1B
1A
24
1E
0E
03
0A
F9
C2
05
0F
13
26
DF
D7
FB
0F
F4
EB
CF
32
FB
4C
E1
03
E4
24
E5
13
13
12
FB
F8
EF
27
1E
1D
E2
F5
19
04
C9
C8
05
06
02
0B
33
03
0C
D2
41
F1
16
BE
1A
00
F3
C7
1D
F8
E5
E7
3D
05
D5
CB
02
0B
17
C8
E8
18
30
F7
0B
12
DE
E8
EF
C3
E1
F7
E7
EB
F8
1D
07
C8
F9
27
0B
DE
AD
CA
81
01
E5
E2
ED
2C
FB
D2
DF
18
24
1B
EF
F5
0D
F1
04
B5
0B
ED
15
08
04
F9
FC
C5
E6
0C
37
A8
AF
E9
E7
D2
AA
08
E3
F5
F2
05
FE
18
1E
15
0E
0A
CC
01
E2
CA
DB
12
E9
F2
F4
08
F7
0E
06
0B
11
FF
EE
DC
E6
E8
E4
02
EF
F6
EF
F2
DD
E4
D1
CC
01
E3
EA
16
04
FD
AD
1D
0E
EF
D1
EA
18
31
14
C7
1B
1A
F7
C2
0C
23
2F
FB
2B
0C
D5
CE
14
DF
16
3A
E9
37
14
EA
3E
03
04
F2
0E
EE
21
EC
FB
0E
00
DB
10
1B
FC
F4
06
F1
F0
05
0A
FF
FB
09
0F
F6
10
F5
F6
07
D6
03
03
EB
E3
1A
2E
17
FB
03
0D
26
DE
2C
0D
EE
05
F2
33
2D
F3
F3
0C
08
15
E0
22
17
16
EC
12
13
D5
D5
35
07
FF
1C
3A
FC
DA
00
0C
01
FD
E6
05
04
22
28
25
1F
D8
04
0C
08
F1
EF
EA
FF
47
EC
09
03
1C
28
05
1E
FF
EC
F5
F6
0D
F8
F2
03
24
F5
F4
37
1F
04
03
02
2B
F8
C4
25
0E
F7
E8
0F
1B
01
DB
00
21
E4
F1
E4
1E
DD
F8
1B
25
D5
03
17
BC
EC
FC
1A
A6
CF
81
E7
CD
A1
EB
3F
CA
26
F8
D0
28
DD
1D
D7
F9
03
D2
08
07
1B
38
1F
FF
EC
0B
10
07
EA
28
13
DF
1A
3E
3B
0B
C1
CF
20
E0
C5
DC
E9
D8
D2
EB
FA
E9
2D
EB
05
0E
F9
ED
18
05
F7
05
E5
E3
0E
FD
C0
09
C3
2C
12
0C
D9
19
F5
01
DF
06
F1
F1
D4
02
F4
D9
03
FB
FF
F4
F6
E4
0A
F3
07
11
F8
F2
33
1B
F2
D0
F8
AF
C4
9F
BE
33
03
B4
A3
34
1F
D6
91
D7
FE
04
35
18
8C
2A
D9
14
C4
49
0C
D7
A4
C6
FF
D4
CB
DB
EA
D6
C6
25
D2
E0
09
40
C2
F9
DB
24
D1
13
16
1B
D9
1C
D4
B3
ED
BE
48
C2
EE
2F
0F
CF
E2
17
F8
BB
DF
8A
A3
D3
DF
E3
0B
BA
03
DB
1F
18
22
01
EF
2A
DE
D6
F6
14
F3
BA
C0
D4
36
0A
A7
35
0D
97
22
EE
B7
E1
A9
FD
0B
2B
C8
A4
A0
C0
24
BF
04
36
F7
E8
E9
EF
ED
02
E3
0D
EB
FB
E0
E2
DA
23
36
2C
4C
32
4B
49
3A
C3
16
C8
E6
1B
27
B8
1C
1D
E3
B2
0E
DD
28
CA
C5
C8
CF
16
CC
E6
32
B9
FD
E9
CF
DF
ED
9E
B5
FE
3A
D9
36
CB
38
C6
D4
AF
00
A6
B8
D6
D0
DF
D1
02
8F
11
BF
DA
CD
F3
1E
E2
02
05
DF
F2
CD
97
D6
EF
D3
DE
D8
EB
D8
E9
37
C0
A6
D9
03
20
21
EF
18
D1
CF
D5
3E
C5
EF
3F
38
E8
AB
19
EB
9C
81
1B
F1
18
A4
27
9A
10
85
8F
CB
06
E2
F1
B0
06
1A
D7
16
EF
2B
22
DF
EF
F4
F3
13
00
24
3B
10
CB
1B
B4
1E
DB
8E
BD
ED
E6
D7
C0
33
B2
3B
06
3A
A2
4B
41
0D
4A
C5
A1
23
EC
B3
BC
CA
A8
9A
84
C7
AB
08
12
49
B9
3A
FD
DC
47
AA
FF
9D
1F
57
16
14
B7
E1
A2
2E
54
E4
F5
46
A4
B3
0F
16
3D
CC
D4
CE
88
2B
16
D2
52
F4
C9
C7
8B
19
FB
C4
92
D7
A6
A2
94
57
38
FF
4E
11
B2
C1
B4
11
9D
A2
C3
A0
9A
FC
BA
B3
89
96
EF
06
EE
CA
06
C9
A8
09
B4
48
94
ED
1A
B1
51
EE
A6
F5
A8
89
4D
EF
95
32
F5
EA
AA
86
44
99
C0
AA
4B
BF
91
19
1B
49
2B
A0
3A
0B
C7
4F
93
95
29
8B
44
C4
B9
0C
F2
97
2D
00
29
50
94
E2
C9
3D
DA
CE
AA
D9
F8
CE
CC
E4
85
81
BE
2A
CE
2F
18
ED
31
33
36
20
13
1B
C1
BE
42
90
AD
A5
29
F0
3E
BC
FA
8F
85
D3
C5
07
B7
38
D8
D9
1F
CD
F7
EB
A3
14
26
58
FA
4E
EF
1A
19
DF
DA
B0
99
58
D3
1C
9C
49
3C
BA
55
F9
FF
4F
BF
8D
37
18
11
18
07
3D
EC
D9
08
FB
2A
8A
CE
DF
51
88
C1
B4
FE
A7
42
2D
10
DD
0D
E3
FF
1A
16
24
1C
13
1E
16
05
19
60
F6
0B
8C
EE
CC
41
CF
39
F0
41
F8
33
0E
00
14
EC
F9
08
EF
03
EE
F0
05
F6
F2
FA
EF
09
07
08
0D
10
01
F8
0D
07
01
07
26
C1
05
10
2C
A6
24
F6
DD
C0
15
FC
13
1B
F9
F2
0C
E3
CF
F9
FF
E1
0D
FB
3B
C6
22
FD
1E
F3
09
37
99
3A
CE
22
03
11
EA
E0
F5
0F
27
ED
31
4D
0D
C9
0A
0E
07
F2
23
38
FE
DE
F1
D1
F6
CC
D9
07
01
9F
06
11
1E
03
29
29
2D
11
1B
0D
1D
42
CA
AA
AD
0E
19
B4
D8
F5
0C
ED
34
27
24
19
26
14
F9
01
38
65
1C
14
08
11
25
12
DE
F3
D2
17
EC
19
FA
32
DB
1E
E9
1B
CD
F5
CE
F7
FC
1F
DE
CB
F8
FB
26
FE
F4
F6
E2
12
E2
CB
E6
E9
EE
0C
98
FE
E0
27
E1
14
59
D6
DF
D0
BF
92
EE
0E
F2
15
01
20
F0
08
25
32
26
81
14
D8
EC
F1
17
15
0E
14
FD
02
F9
F9
F9
26
FC
F6
ED
0D
07
03
D7
09
27
0C
FC
28
0D
1C
3A
E4
13
0A
F2
FB
F5
EB
F2
1C
E8
CA
06
2C
CB
03
FB
2A
DD
B0
E0
04
F9
F1
DC
12
B2
11
F3
17
BD
2C
11
23
2C
FD
46
0F
09
CE
DA
09
1A
F8
04
F1
2C
F9
14
F0
F2
11
F4
08
08
EF
0C
00
0C
08
04
0B
EF
03
EE
13
E3
0E
4D
F0
CE
FB
26
0E
E3
01
18
2D
0C
F7
16
EA
E1
EB
FE
0C
F3
EB
FB
04
EB
F8
0C
10
E8
FA
1F
12
23
C8
00
12
11
FF
1C
2C
29
D7
2E
D9
0E
C5
07
F0
D7
C2
AB
DA
F2
FE
F1
27
CC
F1
BD
2A
DF
E9
F5
E9
CA
E1
A9
25
FF
19
B9
2B
FD
4F
F3
2F
0B
6D
FC
ED
C6
17
07
2B
F0
12
15
E0
01
10
0A
E0
1B
EE
13
FE
EE
29
0D
18
20
16
F5
37
0D
35
CA
FD
E9
D3
9D
B8
1C
A7
3D
B0
FE
DF
0B
98
C2
CE
25
A1
8E
F1
E8
1B
1B
4E
FE
14
FE
0A
E8
11
F1
1F
C0
1E
EF
08
BA
D8
1F
EC
F2
EB
14
1A
FD
05
EE
DE
12
C5
C1
B7
D8
04
CE
AD
C8
07
29
FF
0D
F6
EE
01
FB
0C
E6
CA
81
F8
30
F4
0C
D3
F3
12
B7
EF
EB
12
D2
0C
0E
16
D1
5C
1E
4E
EB
38
3F
0F
F7
17
FD
ED
ED
C9
C6
D4
0F
D2
B0
F7
21
24
F3
D8
A2
BD
AF
E9
AD
B6
D0
20
01
E0
D9
AA
E9
FB
C6
E0
38
F3
12
DC
C9
9F
3F
11
A6
E2
B6
20
04
D1
EC
25
1A
36
4B
4C
4A
F7
FE
3E
FF
E9
15
23
BD
EB
BE
BB
DB
D8
B0
E0
FD
0B
03
A9
89
19
2D
10
B6
16
B1
DB
BB
3B
1D
2B
D4
D5
0C
1B
D9
DF
CC
BE
0F
1B
9F
05
09
9D
2B
F2
0F
E2
0A
A2
8C
D6
92
AB
E6
B4
10
CB
B5
DF
17
8B
A3
A0
83
A8
00
B9
F4
F6
DB
13
20
18
13
08
0C
9F
D1
BF
E7
AE
BB
E7
27
17
9A
17
9D
B8
9D
9A
93
23
B8
22
88
11
F4
2C
1C
16
BE
B0
FD
41
4A
1A
AF
03
AF
A5
2C
A3
FD
A9
EB
A3
B5
B8
D9
92
D1
C4
10
CD
8C
CB
B9
F9
DB
2B
0B
CB
FE
DA
92
81
E8
C7
CE
15
B0
24
B4
C5
E1
D5
1C
20
3A
EA
CA
E5
D4
20
4F
06
EE
FA
9D
C4
DE
DC
F7
9F
0F
99
CD
E6
04
AF
27
24
93
AC
1D
29
C6
F2
2B
A8
DB
FF
FB
AE
F5
A0
12
F2
CF
FD
2A
C8
B0
09
E3
E4
F3
C9
E1
33
E1
CC
4A
FC
A8
B3
BD
E0
FE
DB
2C
17
EB
FA
01
0D
16
08
46
0C
18
FE
0F
F9
D6
E9
E7
CF
13
0D
29
E0
EA
17
13
BA
EC
1A
38
C5
EF
04
EE
F6
F3
0C
FB
12
0B
03
FC
F6
F9
FB
F2
14
F3
FF
11
F6
E7
0A
D5
0A
F9
05
FF
24
3C
D6
EC
1C
28
E6
F3
0B
E8
F6
F5
CB
04
04
02
0E
4E
FF
E4
02
0E
27
20
F6
11
0A
15
F5
BD
09
EF
EA
08
24
F9
D3
D0
ED
FA
FB
EF
14
EB
ED
18
E6
13
0E
04
ED
57
09
F8
DA
F6
D8
DD
1E
20
F1
0E
17
30
02
1A
FE
F7
DE
EF
BF
D2
D7
BD
09
4C
19
DD
19
5A
27
0C
E0
1A
19
FE
FE
0E
1E
7D
0F
27
EE
04
17
F6
FD
07
10
E4
11
15
1B
45
45
47
0B
23
F2
D6
06
38
42
D0
18
11
EF
D1
EE
DD
0C
62
ED
DC
EB
09
1A
F6
FF
F3
15
F9
BB
18
2E
F3
48
3F
02
0D
24
D5
0A
08
0F
F7
03
0A
1A
0F
23
07
3D
7F
F1
E9
19
14
EA
EF
08
18
FE
F6
15
22
CE
01
E6
F1
00
FD
E4
D0
FC
25
EA
D8
0C
2A
FE
D3
CE
CD
01
D9
22
EC
F7
09
45
2A
01
F6
1E
22
16
0C
F5
2D
E4
B8
28
FA
D7
11
DE
15
06
DD
E8
29
C2
F1
22
31
8B
43
FA
1A
12
13
F1
02
2C
01
E9
26
05
15
08
FC
ED
FA
17
FB
0F
FC
FD
12
0D
05
FA
12
E8
F7
00
5A
5B
08
32
23
2B
08
06
4F
24
E6
F8
2B
49
4A
1A
0B
15
FB
1A
11
15
17
06
2C
55
F8
01
5F
0E
F8
7F
17
DE
5E
E9
FC
2B
EA
FF
F7
F1
FD
0A
02
25
2B
EF
DE
21
DF
1A
CA
CB
11
04
D8
16
26
11
15
29
B8
E6
CF
E1
30
09
D5
E2
2C
C8
8D
22
F5
CE
9E
08
B1
08
2B
F3
FA
2E
F9
3C
E8
33
E3
0D
F0
27
D4
30
EA
19
12
F0
24
CA
10
E7
EF
EA
30
41
F4
11
08
1A
2D
F9
4D
9C
05
7C
7C
E0
EF
2A
C3
9E
1A
EC
CE
F9
EA
E4
D9
34
26
EF
17
4C
FA
BE
00
2C
07
E8
1C
32
EE
27
BE
CE
04
43
4F
EB
C8
72
0F
EF
E3
17
C9
DF
EC
05
CE
3B
31
F8
11
D9
F0
34
DE
12
36
D9
A5
C9
5F
24
41
0C
43
15
1D
08
F3
03
0F
20
1D
2D
36
28
3A
FB
DF
00
E8
21
23
4A
11
4A
1D
F4
30
3C
61
1F
D2
A6
EF
A8
AE
C9
E0
D5
FA
0E
DD
01
14
09
E9
18
40
EA
C6
F8
FD
FD
E3
05
CC
E0
A7
D6
9D
CF
09
35
31
2D
48
1C
DB
CF
47
32
EE
E5
E0
0B
E0
F4
FF
1E
29
CA
96
B3
E9
26
9F
18
CF
CD
CF
1F
EA
EC
CE
CC
0F
17
DB
8C
E2
C1
D0
02
F6
16
C8
EF
EC
F4
CB
13
1C
EE
04
29
C7
F1
BB
BB
D4
CD
98
95
C6
88
A9
B8
D2
D8
34
CA
C6
0D
DA
04
98
AF
A2
B2
52
AD
DD
10
D2
D0
E3
F1
87
A7
FF
DA
9A
01
01
FE
EE
FE
0B
0B
1F
D5
9F
B6
EC
E3
CB
C8
31
F3
0C
2D
FB
C2
E2
19
33
13
F4
C5
0E
05
CE
1A
F3
D3
23
90
18
2D
F2
B0
BC
C0
C3
47
E9
9A
EF
81
02
AF
E0
BC
08
F2
C4
D4
DF
3F
E2
31
C4
10
B2
B6
48
FB
0C
D3
3F
DD
35
F1
AF
D9
AD
AF
F6
8A
10
F7
3B
CD
06
9D
21
E1
A0
DA
B4
C6
09
21
47
9D
EF
04
DE
23
CF
09
10
CF
16
0D
0F
04
BF
CF
BB
07
FD
AB
BE
40
DC
28
13
28
3F
D5
E6
32
0F
B1
F1
A5
45
CB
1E
A9
C0
B6
F1
14
AA
25
CC
14
02
21
0A
EA
BD
CC
E7
ED
CC
F4
0B
52
18
1E
EA
02
16
22
2A
08
FE
01
B8
09
05
E1
ED
22
FB
13
13
F2
04
0B
0A
07
F9
0D
F2
04
FF
FF
02
03
04
01
07
FA
B4
D8
14
EC
ED
E1
FA
19
0A
F8
09
19
14
1B
FB
1E
08
F9
E8
07
1C
FD
E7
15
FE
09
1E
1C
09
14
30
D1
FE
12
EF
0D
22
01
0E
0C
00
CA
FE
0C
E9
CC
1F
18
52
1B
EE
16
F2
B7
A1
34
D5
E7
B1
25
E7
23
0E
E6
08
16
CE
1A
F9
00
F4
01
EC
01
0E
23
D6
30
2A
8F
CB
0F
1F
BE
DE
0F
01
11
19
F8
F8
10
38
FF
F9
C7
29
4E
1C
F9
19
1E
0B
0E
04
04
D5
EE
BE
DC
AC
09
5E
D5
00
DA
DD
F5
C6
20
1A
D8
CB
D9
17
C1
09
3F
23
DE
A0
1F
DF
EC
03
F5
EB
F8
35
EA
F0
5C
18
81
33
F7
F2
BB
22
30
18
F5
0A
0E
DF
D7
EF
FA
F8
1A
32
E1
C6
16
0D
00
99
18
03
04
CB
FF
E8
05
E6
EE
0A
01
E0
29
F5
13
FF
F3
01
03
F4
07
25
02
FA
F1
3A
59
17
06
16
10
0E
05
09
0E
08
53
13
10
F2
14
D1
07
35
E5
E0
FE
D3
18
C8
DB
FB
32
1B
E3
76
17
07
43
E4
02
F3
13
25
0D
12
F5
2F
EE
CD
FF
1E
FF
08
F2
F9
11
F0
FC
05
F2
10
FA
0D
18
07
E7
04
ED
B6
BF
CF
01
02
CC
C7
55
DE
B3
DC
5F
1E
FD
CF
E7
EB
E8
2D
CF
0B
26
CF
FA
F4
F0
22
E7
FA
F7
E2
E1
D4
67
D7
14
30
F5
FE
EA
0E
40
0C
11
02
38
0F
2B
0B
02
26
04
EB
EC
F5
16
11
D9
B7
5B
C9
C2
E9
15
4A
E3
0C
E5
2A
08
C0
01
1C
EF
E8
2B
DD
EA
15
27
DF
9C
F6
06
ED
D5
F7
0C
27
FB
0B
4E
51
F5
01
07
C0
A3
AD
22
D1
E4
08
00
C3
B9
CA
BC
FA
D5
1D
B8
8D
F8
1A
B3
91
ED
3D
D2
17
2F
A0
04
F7
7F
15
E6
21
F3
FE
DE
0A
00
F1
0E
1C
FC
00
0B
1D
CF
6C
D8
0C
FC
16
25
9E
CF
3F
DA
D5
EA
CC
F0
EA
1C
25
14
1C
BF
3A
28
E5
20
34
F0
E5
F5
B6
F8
0A
27
E0
0D
F5
2A
13
10
E3
16
0F
3A
E6
1A
0F
44
A6
18
0A
F2
ED
C5
E6
2A
CB
E6
08
26
09
F8
11
DE
2D
EE
22
09
EE
EC
13
BE
F8
EE
DA
EE
13
DC
D3
2D
0A
05
D1
E0
FA
3A
61
11
10
06
BA
D6
F1
E4
CF
FD
22
F2
23
EF
F0
05
07
07
F1
08
0D
EF
03
FF
F5
F5
F2
06
F6
EA
E3
E5
F5
06
DC
F9
F2
33
F2
06
27
34
F7
27
E6
0D
F4
FF
D2
07
01
FD
E7
0B
19
FF
3A
FE
02
03
3D
C5
1E
19
B2
FE
2D
17
DA
05
FA
F4
E6
EB
1F
07
1D
15
1A
EB
E4
E9
EB
EF
ED
0A
14
14
06
F6
FB
14
0B
EC
2D
0E
EF
EF
02
F9
FE
F5
E8
F6
10
F2
A7
97
0F
D8
F1
33
FD
1A
16
FC
E7
0A
19
E4
0D
C9
1C
EA
15
B6
4A
2A
F5
02
BE
D6
FC
F9
E0
02
3B
1B
FD
22
14
34
31
C4
EB
81
CF
C8
C4
E0
07
E1
CC
22
42
07
DD
1B
0E
04
FB
FF
FE
14
FE
06
07
FB
DC
06
23
05
0A
ED
2D
1A
CC
E2
FC
17
15
02
FF
FD
20
14
2C
24
09
38
38
E2
BB
ED
0A
D0
E3
D2
F4
E9
EB
05
0C
1C
F4
F5
EA
E2
20
1C
EB
13
F2
E8
0B
02
E4
F9
37
12
D8
F3
09
3A
05
03
FC
F8
F3
04
20
3B
ED
0F
1E
12
DA
16
F9
FD
EA
F6
02
16
F4
EF
F2
15
DA
C2
C2
D2
F3
08
18
1B
C1
03
00
27
FC
CD
F8
27
01
F7
01
04
00
FB
F9
0C
0B
02
13
0B
FD
F2
F1
ED
F3
FD
08
EF
F1
0D
00
F3
12
18
F6
C8
3A
F7
03
0A
08
EC
04
F6
03
03
04
D5
F8
3C
1D
3E
30
1B
1D
06
EF
10
04
F8
0A
36
16
17
04
26
D2
F2
1A
19
30
02
12
B7
17
FB
E5
E1
FA
F6
E0
0E
33
0E
F0
12
08
ED
CB
27
ED
C5
AF
B1
16
1F
DA
C6
F6
35
A7
03
D9
0D
97
FA
CD
C6
D2
CE
F7
28
E8
C0
2C
4C
CF
13
D2
15
F8
0E
D9
EC
28
29
45
C3
AD
FD
EE
E3
F4
F7
DB
FB
F0
F8
08
09
F7
5C
FC
28
37
26
58
EE
53
F1
FC
C3
55
2F
02
D2
FC
ED
28
07
B7
11
27
F8
F6
FE
32
10
E6
EA
F0
04
81
2A
E3
4E
F4
2A
32
E1
D7
0D
14
06
FB
04
14
01
FC
1C
1D
2E
DE
E2
32
E5
E5
0B
21
EF
01
0B
1F
08
26
E9
0A
E4
1B
D7
1C
F1
1D
ED
DE
D1
14
E5
F3
05
E8
46
DC
2C
14
92
22
44
CD
D2
F3
21
E3
AE
1B
38
DA
31
F7
E7
0B
E9
09
F1
DF
2A
B7
BA
AF
70
1D
F3
2C
17
37
3D
00
0B
16
28
13
CD
1E
38
46
C9
09
05
31
0E
10
F9
03
F4
0E
EE
0E
15
15
0D
0D
04
FF
0E
EF
E3
E1
EC
FD
19
0E
0A
F7
19
E3
F4
C9
58
13
F4
E6
22
FD
EC
26
D9
43
19
1A
BC
27
FB
D6
B5
2C
11
FC
C4
F6
36
DA
10
23
41
1A
E3
35
34
08
E6
0D
27
0C
4A
18
C6
20
0F
EC
D3
C6
1F
F1
D7
CD
64
02
B7
F5
4B
58
E9
12
27
06
FD
D7
FF
00
E1
E7
C9
F3
F7
E4
FA
20
E5
F4
FC
02
E0
E3
03
FE
2B
B9
13
2C
10
D7
EC
DB
F9
D4
F7
E8
EC
EF
E1
FC
E1
15
91
FC
CF
F5
D0
CA
10
A1
2D
B4
28
07
08
C2
FD
A1
02
F9
52
FE
25
05
EA
C6
FD
E4
F8
F3
06
FA
BA
F1
D7
1B
D9
27
DB
39
D0
84
08
DE
F8
39
0B
0E
F0
FD
EE
F5
00
F8
19
33
81
F7
35
26
20
31
13
00
02
DB
0D
23
12
DB
24
03
3C
27
19
EA
0A
1A
39
FE
E8
21
4E
BD
D4
48
3A
34
F3
20
2D
F8
F5
ED
14
01
E6
F4
00
F0
DD
E8
EB
DA
D6
E2
09
FD
02
0F
12
0C
08
30
22
CE
20
FD
F7
25
01
14
0E
FE
1E
EC
1A
00
03
F6
0C
EA
16
F1
08
09
FF
F6
07
00
07
FA
F5
04
03
FF
F9
02
06
F8
FA
E7
07
17
EB
D3
0B
11
10
D8
12
08
21
D4
F0
18
12
F3
16
00
18
F2
01
1F
00
02
FE
FB
04
15
F9
F9
05
07
F0
E7
15
09
09
DE
20
08
0D
EE
06
1B
FF
F8
F8
EB
F1
C4
00
05
02
1C
33
FF
01
0C
F7
FB
E5
1E
F8
E7
EE
F3
08
FD
F3
09
0E
13
0F
1D
16
2B
1D
FC
F3
FF
06
12
E9
FF
0A
08
FC
F7
15
09
29
10
F6
09
06
24
29
02
F2
02
F2
FF
FE
0E
FA
FD
03
01
FB
F7
1C
0D
17
05
D6
EC
E7
09
FC
F7
06
F4
81
F6
17
33
20
03
F1
A3
17
1F
D5
D0
F5
FA
F2
E6
F6
06
30
F9
11
0C
CB
E8
EF
04
CF
E9
F0
12
09
F0
FF
F7
F3
1E
ED
DB
C7
A5
05
E5
B8
CD
0D
0F
FE
C8
17
25
FD
EA
18
04
F2
BC
E7
FF
01
EB
17
0D
0D
07
24
F8
11
1F
06
0C
F4
2B
FF
11
04
F0
0E
FF
FA
18
2A
CB
E3
1A
0E
24
19
14
EB
29
0E
B0
9A
A3
DB
98
AE
07
B0
E1
32
BF
CB
D2
A8
A6
26
14
25
F3
20
CB
0B
A4
FB
C3
38
D1
17
D4
2A
22
F4
B3
38
FD
E9
EF
EA
E5
3E
18
EF
F4
97
E2
B6
C2
93
DB
83
0E
38
DD
0C
DA
21
F6
16
FF
EB
9E
8A
EA
96
1F
20
BD
E6
09
97
1B
17
83
B4
C2
A8
CE
2E
FA
FA
E9
DB
12
DC
D5
09
23
B5
BD
16
CB
2F
37
1E
04
C0
DF
95
0B
99
BC
04
CE
D4
E5
D4
1F
BD
27
28
06
97
A9
89
BC
AC
E6
C0
8E
10
A0
BF
E6
0A
B8
C9
D0
18
AE
D3
30
B4
9E
F3
EA
94
A6
E5
16
10
E3
1B
C3
D7
F2
DC
DB
15
09
A5
B7
FE
C3
52
02
C3
BF
2D
CD
1C
35
94
BC
C3
FA
9C
28
CE
07
E8
1C
18
24
EA
A1
96
DE
90
FF
FC
B0
DF
A0
F0
B5
08
21
1C
00
D5
3C
C0
89
BD
F4
22
B0
C3
1C
9D
07
CB
14
BD
81
A9
23
FE
E7
AD
02
BA
EF
C8
E1
33
23
BC
FF
BE
BC
4D
E5
DB
41
29
F1
31
0E
FE
DF
22
3C
0B
DA
BC
1B
E5
07
D9
C3
C0
DA
CE
33
0F
B5
8A
BF
16
24
C8
E3
E6
0A
08
32
01
10
F3
15
E8
FB
28
E8
F3
26
A5
28
23
12
D7
D9
07
FB
E7
F0
23
15
E7
08
06
F8
F7
08
07
06
FB
F3
06
09
F6
F3
F3
FA
04
08
EB
07
1C
FD
DE
DF
F1
FC
C6
0B
17
0C
C5
F1
0E
F8
FB
EB
FE
F5
02
00
13
03
F0
09
15
0B
E3
F9
EB
09
41
48
A1
E9
18
04
EE
D2
13
EE
F7
EF
F6
09
F5
18
F7
CE
D8
C8
EF
06
02
15
CC
05
F0
0C
B7
3F
FE
15
FD
BA
C3
FB
16
1C
01
09
08
08
26
1D
0D
1D
40
26
02
2E
E6
03
06
50
46
00
11
F4
1E
F9
F5
15
1C
FE
F6
F0
FC
01
15
1B
FC
16
07
20
0D
1A
10
E3
10
E1
04
F8
6B
C4
E7
69
EC
D0
02
F3
F2
EA
08
4A
81
C0
10
E5
18
07
17
E3
D4
F4
02
EB
FA
FB
0C
E4
0E
EE
1F
D9
D2
F2
03
3B
4B
12
20
2C
0C
06
E2
0F
F4
F9
2A
D4
32
D0
F2
09
17
07
EC
F7
F5
2C
E4
C6
FC
16
04
28
DA
25
FE
15
F3
2C
F1
16
FA
ED
EC
18
F5
DD
29
14
3C
F8
05
1E
33
19
F7
0D
F8
17
12
EE
10
01
00
1D
FC
E4
FD
05
F0
2A
F1
09
C5
00
EA
D0
EF
C2
1D
36
D3
FA
01
FC
F5
DB
11
F6
F2
E2
2A
28
FE
10
04
05
0F
F7
0F
08
0A
0E
00
01
04
FE
F8
F4
00
03
06
15
2D
23
06
EF
F3
0C
DE
01
3B
0D
C6
F2
25
21
18
FB
1D
F7
1A
F1
29
24
0C
1D
0A
18
04
13
E8
11
3E
42
15
EE
06
D4
14
F8
0F
DD
F2
ED
14
17
03
02
F0
00
10
D2
24
05
FC
FB
E4
D0
B5
CB
A5
EA
A7
C2
01
E9
FB
EA
1B
0F
07
0A
09
03
FE
12
24
38
3D
17
FD
38
29
01
04
14
68
F7
EE
D7
17
1A
D3
1C
28
1B
D8
C3
8C
0E
01
0E
06
0B
02
0D
0A
03
44
CF
18
DE
26
1A
FB
DE
07
54
CE
F2
DA
D2
CD
23
07
3D
E0
F5
14
ED
CE
04
0B
F4
99
D4
0D
EC
C7
C6
16
F2
FA
8A
D4
D6
D5
D0
FE
47
32
09
FE
08
08
08
E8
00
1D
02
0A
CE
08
C1
08
15
F5
05
1F
E2
FF
36
E6
BE
25
28
10
3C
F2
E3
00
2B
C7
CA
EE
F6
B6
81
E4
EA
BC
83
FF
2B
3A
E9
D0
F4
3F
EE
DE
12
27
FC
E1
DC
FF
F4
12
D0
EF
05
F3
BA
D1
EE
06
A9
EC
DF
2C
DA
19
E8
FF
14
02
11
19
E4
0B
EB
08
04
0E
1E
0C
F6
20
1F
0D
0C
0A
FC
F6
FF
06
F5
FE
FD
FE
00
01
F5
F8
0D
02
EC
F4
FC
00
F0
CA
09
0C
18
D0
EA
1A
36
DD
0A
02
E9
05
D7
F2
E9
D8
E1
07
F3
02
F2
F3
0C
14
F8
14
0D
05
F4
1B
1B
31
1B
03
06
0A
1D
02
07
E8
11
19
F0
DE
E9
DC
9E
8A
C2
E9
83
99
C0
FD
A5
CA
FA
E7
01
E0
ED
F4
ED
08
F3
F5
F8
12
03
0C
15
55
0E
DD
F7
02
0B
FF
13
F7
FB
FB
06
F3
FE
18
1C
FA
04
04
10
57
DF
08
13
0B
F6
1A
12
F8
0B
EE
F7
F9
FE
09
EF
0F
0F
D0
E3
18
F6
DF
04
17
09
F1
0B
43
35
02
25
0C
10
02
FA
0B
36
F6
F1
24
45
F8
F4
56
20
0D
38
FA
02
F5
13
1C
28
E7
FC
0F
26
F4
ED
02
1A
13
14
C8
E5
1B
1C
1B
E2
0B
F8
08
F8
EF
02
14
FD
2D
DD
1C
29
29
EB
1B
1C
00
D6
05
1D
0A
C9
FE
4C
2B
FA
0B
15
23
EA
06
FD
06
A8
ED
EC
20
81
C6
04
EC
09
F1
E5
11
20
42
1D
14
2E
06
25
D6
02
DD
16
F5
F7
DA
71
12
FB
02
CD
07
F2
F7
DC
37
13
F6
17
10
0F
06
07
10
02
07
0F
00
10
09
01
11
0D
EF
05
18
CA
11
21
1A
F4
1C
4B
E5
CB
F5
12
C6
C6
C3
D9
FD
42
0D
F5
11
21
1A
2E
FB
0E
F7
03
15
C8
C3
DD
E9
ED
CA
EA
1D
01
E6
CF
0E
DB
FA
F0
F9
D5
FA
D1
12
EF
E3
F0
33
19
15
2D
0B
4A
25
1B
20
5F
37
45
1B
1C
49
14
1F
10
2A
2B
13
1F
25
28
07
0D
C6
FF
F9
35
22
FE
E4
21
FF
17
FC
E6
F5
12
F7
D0
FF
28
F4
54
2E
66
09
0E
C1
E1
EF
E8
C6
EA
06
D6
B4
E7
3E
F1
CE
26
0D
17
AF
E6
07
E8
B6
BF
83
E5
B8
C4
0E
12
1F
81
1F
1A
00
84
1B
0B
EB
A7
1C
19
DF
EA
20
C5
42
52
D5
DE
E3
EB
E6
F5
CC
EB
BB
D2
CD
E3
F7
10
2B
FE
F3
F8
D6
EC
00
34
F1
C8
07
F9
A6
9F
F9
1D
EE
FC
F8
18
05
FB
EA
29
0B
F1
25
35
43
21
F2
34
0E
FC
22
0F
E8
EE
29
09
FC
0B
30
0E
0E
36
54
47
12
BE
4D
32
2A
D6
35
1C
1B
07
F3
06
DB
FD
CF
FE
AF
44
DA
F9
E5
3D
E0
E9
F0
32
20
0E
EC
49
0C
E8
07
F3
07
0F
16
F2
07
07
19
19
EC
EF
E8
F6
2E
1A
5B
2D
36
32
24
0E
27
E8
16
D3
57
FA
E8
BE
13
2D
24
29
4B
4F
4B
2C
1F
34
19
B4
0D
28
F8
DC
AF
20
CD
1A
E8
FE
CA
22
EE
33
41
08
E2
08
FF
39
47
53
FA
14
15
35
1F
0C
CD
15
19
35
0C
32
11
1C
50
3A
69
A5
2F
E4
39
A9
08
E3
EE
D2
E1
07
EF
08
25
2A
2A
B6
E2
F8
04
D1
D3
C8
EF
CE
E9
10
FA
F6
E6
E3
12
31
CB
E2
1E
22
F0
28
0D
08
FD
21
0E
25
25
DC
B6
89
FC
03
DB
B3
DB
E9
D8
AC
A8
22
05
06
FB
F5
1B
B2
07
FF
E9
FA
01
03
B5
31
E5
18
EF
18
CD
CA
B6
81
00
27
E3
FC
E3
3D
E6
E7
DC
D5
06
FC
EE
DF
AF
F9
E6
1C
E9
FD
FE
20
E8
FD
E8
17
F9
EB
01
14
E8
64
3C
16
02
6E
1D
09
18
42
41
F9
F7
4D
10
5B
EC
B6
08
4A
2F
FD
FF
EB
12
28
A6
F8
E2
EA
F9
F5
D8
0F
F7
10
F0
5A
F5
3E
21
5D
F6
3E
06
C0
23
01
0C
BD
1E
E2
12
F6
16
C4
E8
09
E8
CA
0B
CB
0D
FA
E9
EA
EF
18
F6
FF
FE
FF
1A
ED
0C
F2
05
F6
03
31
1F
F7
D7
EA
1A
F2
86
2D
2D
D5
9B
0C
62
09
3F
D9
E9
0A
1E
F8
DF
06
26
0A
48
4A
E0
10
DF
FB
4B
61
FD
E5
EC
C4
2B
F6
14
B1
B9
1F
19
E2
0A
0E
F6
AC
07
DE
0E
19
EE
16
45
ED
2B
1C
F5
EE
F5
A9
FB
C7
8C
27
07
EE
F0
25
26
2B
12
21
11
54
33
05
CE
F2
D2
1C
AB
F7
08
22
C0
FD
ED
34
EC
F1
03
EB
0A
DE
81
2F
FB
F5
EB
03
F7
D8
F9
AA
10
E0
1B
E3
EF
F8
74
19
43
4A
1D
96
25
FB
F1
AA
7C
0A
AB
B3
E7
11
1B
0D
2E
1B
D3
FE
D0
D1
FA
E8
D3
EC
19
A5
DC
DC
BB
F1
F3
0D
3A
C2
F1
BE
E6
C9
18
F3
EB
D5
ED
98
F0
E9
C2
00
07
FB
05
EC
FD
06
EB
D9
D5
24
05
20
1B
9F
35
13
DD
A2
40
27
F8
CF
0C
F7
F1
15
C1
B6
1C
27
DA
D0
01
FC
0C
DF
06
EB
47
D0
2D
BC
E9
2E
0F
D4
E9
BB
EE
16
F1
B8
1D
37
20
B6
0C
23
25
2C
D5
47
05
FC
07
09
25
FA
18
F5
15
DE
59
05
08
02
0F
02
FB
F8
01
0B
05
0B
EC
02
FA
11
F5
0E
11
C5
F5
FF
00
C1
DB
10
1C
0A
FF
3B
10
38
19
2F
C1
21
F0
E7
02
FC
BA
F7
2E
FD
EB
2E
3A
FB
2A
2F
25
FC
F2
23
03
FF
00
00
F5
0C
0D
06
09
FC
2E
F5
B0
EC
24
E0
DF
DE
0E
EE
1F
CA
00
DE
5A
D7
E0
23
DC
C6
10
BA
EF
E3
14
E7
04
03
00
E9
44
F1
22
10
FF
E8
FC
E5
0A
FD
E7
16
29
11
DB
17
54
41
C7
00
F5
E5
19
42
E7
15
F8
00
0D
15
FD
D4
EC
F8
10
EC
06
1F
81
51
CC
F3
C2
09
0A
26
D7
ED
1F
36
1C
CA
FF
F6
39
13
01
EA
03
35
17
E5
2D
56
F4
E1
7E
3E
E4
E3
E6
40
FB
3A
E7
00
00
2A
C2
EB
09
0E
D6
E4
01
EA
0C
3C
23
1A
06
1B
0B
07
02
DD
FE
29
F3
E0
0A
12
0E
01
14
20
21
F9
E1
F9
F9
23
17
EF
FF
34
19
01
19
04
0B
1A
E8
29
21
EE
F2
26
5F
F8
DA
30
95
5E
C8
89
BE
18
E8
C4
01
FD
C3
1B
A7
B4
81
E6
DF
AC
C2
0D
BC
C3
83
90
E8
2A
D6
31
EB
ED
27
B0
FC
A5
03
61
60
F1
DD
D7
B1
37
E4
B3
5B
E2
5E
18
AD
9F
90
09
E7
B5
D9
E1
0B
CA
84
C4
EE
FA
CC
3E
82
C7
E1
BE
AE
3A
A3
2D
9E
3C
90
38
DC
89
93
3B
AA
03
D1
A4
9F
A5
31
05
B8
0C
BB
E5
82
8C
D1
3A
35
18
1E
97
C9
22
0D
91
E3
E9
D5
0A
D9
3C
31
37
F9
00
07
8D
E0
A4
94
C5
E9
9C
3A
F1
DB
B5
92
CD
F3
19
C6
B8
81
3B
CB
3A
EC
A0
22
BA
D3
2B
EC
87
EF
23
F7
EE
36
F0
96
11
29
04
C9
B1
C8
1C
FD
0C
E7
AF
F8
F7
2B
1C
95
E3
E0
47
86
84
05
EF
02
56
8B
96
3C
D7
95
D4
F0
05
B9
97
CB
A3
D7
9D
18
15
20
15
D3
A4
3B
C0
0D
A3
A8
31
8F
21
AF
33
A7
94
2C
2D
B5
3A
1B
36
93
F4
AA
25
EC
9A
FC
35
96
AE
85
3D
C9
C7
92
08
13
AB
C6
85
02
07
84
B8
94
16
05
D2
AE
DA
E4
2D
B1
F9
DF
FF
13
16
0A
B3
E3
33
2B
EC
2B
FF
BB
9D
06
DA
0B
0B
06
A6
C9
94
F9
05
08
F1
14
F0
C0
DE
C6
BE
A7
35
90
C1
FC
FA
B0
1D
BE
07
45
B6
2A
1B
B6
10
BA
03
C6
ED
48
F3
1A
43
06
CC
F2
9F
C1
FE
12
C3
A6
0D
AA
A3
EB
09
A1
98
19
05
E7
9C
96
2C
02
C7
FC
21
DF
B2
D6
E9
AD
15
F5
AA
F2
81
24
A5
17
2F
FC
23
E7
91
B0
F7
EA
D5
D8
D4
B7
EF
AE
BA
98
07
9E
05
32
AE
D6
E0
BA
F5
96
C3
1E
D0
B2
99
1C
22
91
2B
DD
0B
C0
FC
AD
46
B7
FA
FF
E6
9D
0D
A6
F1
F1
A6
A8
C8
DE
BE
9E
C5
04
D2
4D
B4
E8
48
A4
1E
8E
D4
E6
ED
E2
AC
C2
D9
97
D9
E5
03
DF
98
FC
10
8D
C1
A1
D7
14
FA
B8
00
2F
DC
EC
06
0C
33
C7
14
D6
0A
39
9D
14
FF
05
0B
14
EF
DD
8B
E7
CE
8E
A2
0E
00
20
8D
21
17
94
31
DA
C6
92
C2
23
EE
07
0E
D2
E1
E1
F9
0D
AD
2D
C9
EC
ED
97
34
8B
F5
CC
AD
ED
EA
E3
FC
D9
DC
B6
F2
89
9A
13
91
FD
8A
BE
99
C2
A7
BE
25
FD
0A
14
03
D3
8A
A3
F8
04
D3
ED
06
85
90
96
CE
E0
A4
1B
AC
9E
F6
05
DA
BD
D4
2F
12
8D
22
C4
BC
F0
D3
20
17
C8
0A
CB
00
C2
3D
DF
F9
CD
F5
E5
E2
41
0B
3A
14
D1
E9
F2
46
46
C0
1A
1F
22
E1
DE
CE
AD
23
B7
EB
FE
1C
B2
92
20
B6
E6
D3
43
2A
B7
A9
E7
0D
88
8F
A2
FF
B7
12
84
8D
C1
F2
1C
06
1B
F8
21
82
1E
E4
1A
BB
A3
8B
C6
F2
FA
C8
CD
CC
1C
CD
1A
42
03
DC
FF
3D
B6
D3
C1
FC
1A
A4
B5
08
B0
81
18
C3
31
C3
EA
32
35
D1
BF
12
ED
07
C8
B4
D7
B3
E1
BE
BC
41
30
D2
D5
F5
B1
C7
C4
CF
2C
D1
A4
AA
D0
E8
B9
E0
BC
B0
1A
DF
20
24
FA
BB
D5
AD
FB
AC
E3
25
BA
1F
C4
C9
CB
13
CE
9E
CA
CD
15
13
15
AE
D3
AA
E8
16
EA
9C
99
B2
A6
A8
0C
EE
E2
C7
19
C6
D4
FC
92
20
9A
C0
EE
CE
09
B5
A3
EC
B3
0B
FB
12
C1
1B
DE
C1
19
AF
10
E1
B1
1F
CF
89
E2
C0
B8
C6
F5
BE
31
91
17
2B
10
CC
94
94
A6
25
99
89
30
3B
1F
C3
E0
D4
D1
AF
C0
07
ED
E7
F0
E3
C4
11
00
1E
17
10
FD
2C
FA
D9
27
C3
E6
81
D1
4E
01
BA
43
CA
EB
DE
A7
86
0D
0D
08
12
2D
EC
F2
C5
EB
14
C2
F2
FC
20
39
EF
27
CD
EF
0A
28
34
D2
D1
F6
2B
10
D9
FE
0E
43
11
DE
F2
FA
10
D8
20
EC
22
E7
07
31
2B
1D
1E
35
D7
BE
E5
1A
A9
13
C2
32
DF
16
B1
B3
FF
D0
B2
9A
9B
FC
FD
F0
C9
E2
CD
F7
18
BF
BF
0B
C4
A5
F8
F8
C1
BB
DD
DF
A5
09
B7
AE
2B
AB
82
20
E8
D4
0E
B7
EE
E3
DA
EF
08
D2
A1
9D
DE
3F
CD
1D
AB
1F
C6
E4
A5
E4
0D
EA
B3
DC
C5
26
FE
AC
05
00
2D
91
DA
DA
FC
21
24
A9
C3
F5
E0
07
C4
0A
E7
00
C8
98
B3
BB
DC
FF
B1
F4
EA
E8
E2
17
A2
94
FC
36
B5
9E
D0
94
E2
27
D0
20
07
F1
EA
C2
AE
2F
D0
C5
E6
E8
CE
F3
AF
27
07
C5
02
FA
D1
D6
F4
0A
C7
0A
D1
9A
AA
E1
36
1D
08
F5
9D
C2
B5
0A
17
BB
B3
F6
09
B3
BB
08
BC
E2
9E
BD
E1
C8
89
E2
1B
29
C8
8F
F4
31
8B
B8
A3
F8
01
09
0F
0C
FB
11
04
15
23
F4
0C
E6
06
14
2A
CC
CB
3A
B2
06
E9
18
10
3A
EE
E2
E0
36
C0
EE
D2
F8
EE
14
14
11
FB
13
03
F6
FC
0B
F7
FA
0D
09
F7
06
0B
E6
04
F4
E1
0B
FF
E7
1F
FA
1B
CE
26
F1
2A
F6
09
16
F3
ED
F0
E6
E0
33
E9
FC
3E
28
FD
1E
2C
D9
F3
57
F6
E2
FE
1B
D0
0E
BD
01
EE
35
BD
EA
C6
07
01
0E
16
02
04
03
0F
09
E7
0C
F0
56
3C
1F
FB
05
2E
00
FC
15
16
EF
05
23
3C
1B
32
1E
1B
34
DF
DF
B6
EC
B0
17
FA
F4
E7
2A
19
12
04
16
E4
10
C3
EA
DC
ED
64
0B
2C
ED
D9
EA
E8
10
E5
0C
FE
19
12
DB
36
16
7D
F6
DF
FF
13
EF
0C
41
E0
0A
E7
1E
D7
D3
FE
09
7F
D1
D9
13
2C
F5
D7
27
19
FA
AC
CE
41
EE
26
20
0D
18
FD
2A
FD
FA
F1
34
0B
14
0A
EF
03
01
22
E7
70
1E
FD
1D
30
F2
D9
1E
FD
F0
F3
18
24
02
D3
FF
F0
FE
DF
EF
D0
18
F0
FF
FE
DD
CB
DE
F3
A5
D1
FA
E4
32
E3
EA
19
33
EA
DB
FC
26
F8
00
14
00
14
0E
FC
09
F0
0D
D8
F6
E9
0A
E3
FC
EF
08
0B
17
0D
11
00
0C
F1
EF
EE
1C
FA
F0
E8
17
05
0C
E9
F8
09
FA
04
FB
FC
FD
FE
08
08
01
FF
09
0A
FB
F6
E3
09
05
10
F8
F6
04
21
11
DC
FC
35
1B
F5
0E
2D
F2
FB
F7
00
07
06
FC
F4
2B
02
07
2A
2F
05
0C
2F
16
FD
1C
FE
02
13
1B
07
0A
18
05
EB
0B
11
FA
EE
EB
0A
19
FB
F1
01
11
DC
F5
DF
15
E8
1A
D4
0C
15
EA
EC
15
D5
FA
F9
01
E1
07
F7
02
05
08
EC
F3
05
1D
FE
FB
FF
09
17
0B
03
08
02
07
11
FF
05
F6
16
03
0B
0B
12
05
D6
E7
03
1A
10
EE
15
19
1F
F7
F0
B2
F0
CE
55
D4
E9
F6
39
0F
EA
F9
06
27
DE
F1
D0
F6
FA
0F
F6
0B
EC
13
08
13
FC
E6
B7
FF
00
FA
81
02
FB
11
24
F6
0E
03
28
EF
F8
F8
0D
0C
0C
FC
EF
EE
02
E8
0A
F9
24
06
20
FB
F6
EC
E7
0D
11
EC
AB
04
EF
16
14
13
FE
15
FE
FB
03
0B
F5
25
01
10
03
18
02
09
0A
EA
0C
0D
09
EF
14
0A
0B
0C
05
22
16
F0
A2
9A
FF
08
D5
C7
FF
DE
EB
19
F4
E2
22
D7
E8
FE
EC
CB
AD
C8
D2
B8
87
01
C1
9C
EE
C8
E6
F0
18
F0
0B
D8
01
33
C7
FF
22
D1
E3
38
D4
37
F5
CB
18
BE
04
D4
BD
C9
19
D0
08
FB
A9
D1
C9
F3
05
E8
15
B2
E5
D2
E9
EF
05
AF
AF
E1
DE
F1
02
D9
DA
F9
AE
FC
11
04
C0
F9
1A
F1
E4
D8
28
EF
DA
06
B2
D6
DF
BF
BE
A8
E1
15
DC
E1
0C
19
EF
E4
0C
3D
F0
37
43
D5
1A
D5
D4
CF
0B
EA
0B
DA
2E
D0
D1
D1
3A
0C
F6
B7
DB
B4
11
13
B8
CD
B7
D0
F3
D0
F3
B6
04
11
14
18
B7
EB
0F
C9
96
D9
CC
AC
AB
02
C2
B9
8C
88
95
F0
B5
F1
F9
E1
81
0E
FA
C5
AB
04
FB
90
81
DB
FF
1F
D5
B8
02
0F
BB
D8
F5
F1
28
E1
D6
AD
